<unk>	0.0
<s>	0.0
</s>	0.0
<0x00>	0.0
<0x01>	0.0
<0x02>	0.0
<0x03>	0.0
<0x04>	0.0
<0x05>	0.0
<0x06>	0.0
<0x07>	0.0
<0x08>	0.0
<0x09>	0.0
<0x0A>	0.0
<0x0B>	0.0
<0x0C>	0.0
<0x0D>	0.0
<0x0E>	0.0
<0x0F>	0.0
<0x10>	0.0
<0x11>	0.0
<0x12>	0.0
<0x13>	0.0
<0x14>	0.0
<0x15>	0.0
<0x16>	0.0
<0x17>	0.0
<0x18>	0.0
<0x19>	0.0
<0x1A>	0.0
<0x1B>	0.0
<0x1C>	0.0
<0x1D>	0.0
<0x1E>	0.0
<0x1F>	0.0
<0x20>	0.0
<0x21>	0.0
<0x22>	0.0
<0x23>	0.0
<0x24>	0.0
<0x25>	0.0
<0x26>	0.0
<0x27>	0.0
<0x28>	0.0
<0x29>	0.0
<0x2A>	0.0
<0x2B>	0.0
<0x2C>	0.0
<0x2D>	0.0
<0x2E>	0.0
<0x2F>	0.0
<0x30>	0.0
<0x31>	0.0
<0x32>	0.0
<0x33>	0.0
<0x34>	0.0
<0x35>	0.0
<0x36>	0.0
<0x37>	0.0
<0x38>	0.0
<0x39>	0.0
<0x3A>	0.0
<0x3B>	0.0
<0x3C>	0.0
<0x3D>	0.0
<0x3E>	0.0
<0x3F>	0.0
<0x40>	0.0
<0x41>	0.0
<0x42>	0.0
<0x43>	0.0
<0x44>	0.0
<0x45>	0.0
<0x46>	0.0
<0x47>	0.0
<0x48>	0.0
<0x49>	0.0
<0x4A>	0.0
<0x4B>	0.0
<0x4C>	0.0
<0x4D>	0.0
<0x4E>	0.0
<0x4F>	0.0
<0x50>	0.0
<0x51>	0.0
<0x52>	0.0
<0x53>	0.0
<0x54>	0.0
<0x55>	0.0
<0x56>	0.0
<0x57>	0.0
<0x58>	0.0
<0x59>	0.0
<0x5A>	0.0
<0x5B>	0.0
<0x5C>	0.0
<0x5D>	0.0
<0x5E>	0.0
<0x5F>	0.0
<0x60>	0.0
<0x61>	0.0
<0x62>	0.0
<0x63>	0.0
<0x64>	0.0
<0x65>	0.0
<0x66>	0.0
<0x67>	0.0
<0x68>	0.0
<0x69>	0.0
<0x6A>	0.0
<0x6B>	0.0
<0x6C>	0.0
<0x6D>	0.0
<0x6E>	0.0
<0x6F>	0.0
<0x70>	0.0
<0x71>	0.0
<0x72>	0.0
<0x73>	0.0
<0x74>	0.0
<0x75>	0.0
<0x76>	0.0
<0x77>	0.0
<0x78>	0.0
<0x79>	0.0
<0x7A>	0.0
<0x7B>	0.0
<0x7C>	0.0
<0x7D>	0.0
<0x7E>	0.0
<0x7F>	0.0
<0x80>	0.0
<0x81>	0.0
<0x82>	0.0
<0x83>	0.0
<0x84>	0.0
<0x85>	0.0
<0x86>	0.0
<0x87>	0.0
<0x88>	0.0
<0x89>	0.0
<0x8A>	0.0
<0x8B>	0.0
<0x8C>	0.0
<0x8D>	0.0
<0x8E>	0.0
<0x8F>	0.0
<0x90>	0.0
<0x91>	0.0
<0x92>	0.0
<0x93>	0.0
<0x94>	0.0
<0x95>	0.0
<0x96>	0.0
<0x97>	0.0
<0x98>	0.0
<0x99>	0.0
<0x9A>	0.0
<0x9B>	0.0
<0x9C>	0.0
<0x9D>	0.0
<0x9E>	0.0
<0x9F>	0.0
<0xA0>	0.0
<0xA1>	0.0
<0xA2>	0.0
<0xA3>	0.0
<0xA4>	0.0
<0xA5>	0.0
<0xA6>	0.0
<0xA7>	0.0
<0xA8>	0.0
<0xA9>	0.0
<0xAA>	0.0
<0xAB>	0.0
<0xAC>	0.0
<0xAD>	0.0
<0xAE>	0.0
<0xAF>	0.0
<0xB0>	0.0
<0xB1>	0.0
<0xB2>	0.0
<0xB3>	0.0
<0xB4>	0.0
<0xB5>	0.0
<0xB6>	0.0
<0xB7>	0.0
<0xB8>	0.0
<0xB9>	0.0
<0xBA>	0.0
<0xBB>	0.0
<0xBC>	0.0
<0xBD>	0.0
<0xBE>	0.0
<0xBF>	0.0
<0xC0>	0.0
<0xC1>	0.0
<0xC2>	0.0
<0xC3>	0.0
<0xC4>	0.0
<0xC5>	0.0
<0xC6>	0.0
<0xC7>	0.0
<0xC8>	0.0
<0xC9>	0.0
<0xCA>	0.0
<0xCB>	0.0
<0xCC>	0.0
<0xCD>	0.0
<0xCE>	0.0
<0xCF>	0.0
<0xD0>	0.0
<0xD1>	0.0
<0xD2>	0.0
<0xD3>	0.0
<0xD4>	0.0
<0xD5>	0.0
<0xD6>	0.0
<0xD7>	0.0
<0xD8>	0.0
<0xD9>	0.0
<0xDA>	0.0
<0xDB>	0.0
<0xDC>	0.0
<0xDD>	0.0
<0xDE>	0.0
<0xDF>	0.0
<0xE0>	0.0
<0xE1>	0.0
<0xE2>	0.0
<0xE3>	0.0
<0xE4>	0.0
<0xE5>	0.0
<0xE6>	0.0
<0xE7>	0.0
<0xE8>	0.0
<0xE9>	0.0
<0xEA>	0.0
<0xEB>	0.0
<0xEC>	0.0
<0xED>	0.0
<0xEE>	0.0
<0xEF>	0.0
<0xF0>	0.0
<0xF1>	0.0
<0xF2>	0.0
<0xF3>	0.0
<0xF4>	0.0
<0xF5>	0.0
<0xF6>	0.0
<0xF7>	0.0
<0xF8>	0.0
<0xF9>	0.0
<0xFA>	0.0
<0xFB>	0.0
<0xFC>	0.0
<0xFD>	0.0
<0xFE>	0.0
<0xFF>	0.0
on	-0.0
in	-1.0
en	-2.0
er	-3.0
at	-4.0
▁t	-5.0
or	-6.0
re	-7.0
se	-8.0
▁i	-9.0
de	-10.0
st	-11.0
he	-12.0
▁a	-13.0
ion	-14.0
le	-15.0
al	-16.0
ar	-17.0
▁c	-18.0
ed	-19.0
▁f	-20.0
▁=	-21.0
▁the	-22.0
am	-23.0
ce	-24.0
an	-25.0
▁in	-26.0
ing	-27.0
ut	-28.0
▁n	-29.0
mo	-30.0
it	-31.0
ct	-32.0
ig	-33.0
▁w	-34.0
▁re	-35.0
▁"	-36.0
▁b	-37.0
▁is	-38.0
ent	-39.0
di	-40.0
▁s	-41.0
ur	-42.0
▁if	-43.0
la	-44.0
▁o	-45.0
ch	-46.0
▁#	-47.0
▁to	-48.0
ation	-49.0
lf	-50.0
del	-51.0
▁p	-52.0
ro	-53.0
self	-54.0
lo	-55.0
▁`	-56.0
onf	-57.0
mp	-58.0
onfig	-59.0
ot	-60.0
et	-61.0
model	-62.0
pe	-63.0
▁e	-64.0
▁de	-65.0
ss	-66.0
one	-67.0
co	-68.0
▁N	-69.0
ue	-70.0
ad	-71.0
▁an	-72.0
att	-73.0
is	-74.0
ac	-75.0
▁None	-76.0
▁not	-77.0
ener	-78.0
ra	-79.0
ma	-80.0
▁(	-81.0
ate	-82.0
ke	-83.0
ame	-84.0
urn	-85.0
un	-86.0
ers	-87.0
put	-88.0
▁g	-89.0
▁self	-90.0
ble	-91.0
):	-92.0
id	-93.0
ens	-94.0
turn	-95.0
to	-96.0
orch	-97.0
config	-98.0
▁and	-99.0
iz	-100.0
arg	-101.0
▁st	-102.0
av	-103.0
▁for	-104.0
▁return	-105.0
▁model	-106.0
der	-107.0
▁th	-108.0
il	-109.0
▁def	-110.0
ile	-111.0
pp	-112.0
ype	-113.0
▁h	-114.0
▁T	-115.0
▁v	-116.0
args	-117.0
li	-118.0
ul	-119.0
▁of	-120.0
ort	-121.0
pt	-122.0
eneration	-123.0
es	-124.0
vi	-125.0
▁be	-126.0
()	-127.0
ex	-128.0
ol	-129.0
""	-130.0
ken	-131.0
__	-132.0
kw	-133.0
ly	-134.0
um	-135.0
name	-136.0
qu	-137.0
kwargs	-138.0
ensor	-139.0
ith	-140.0
▁-	-141.0
▁m	-142.0
rom	-143.0
key	-144.0
coder	-145.0
th	-146.0
dict	-147.0
as	-148.0
type	-149.0
▁u	-150.0
▁d	-151.0
",	-152.0
▁lo	-153.0
ant	-154.0
alue	-155.0
du	-156.0
ts	-157.0
▁)	-158.0
lable	-159.0
▁"""	-160.0
ai	-161.0
ache	-162.0
ment	-163.0
ention	-164.0
dule	-165.0
po	-166.0
str	-167.0
ag	-168.0
▁from	-169.0
mport	-170.0
▁we	-171.0
for	-172.0
▁se	-173.0
("	-174.0
ersion	-175.0
bj	-176.0
▁or	-177.0
torch	-178.0
")	-179.0
attention	-180.0
ailable	-181.0
▁ex	-182.0
em	-183.0
▁_	-184.0
▁with	-185.0
module	-186.0
ck	-187.0
▁F	-188.0
ect	-189.0
len	-190.0
._	-191.0
ath	-192.0
▁*	-193.0
▁A	-194.0
▁it	-195.0
attr	-196.0
ext	-197.0
igh	-198.0
vice	-199.0
available	-200.0
ref	-201.0
ence	-202.0
▁->	-203.0
ding	-204.0
ub	-205.0
▁torch	-206.0
▁ne	-207.0
▁import	-208.0
ror	-209.0
lass	-210.0
ase	-211.0
ption	-212.0
heck	-213.0
aram	-214.0
bed	-215.0
▁@	-216.0
int	-217.0
ined	-218.0
▁generation	-219.0
ve	-220.0
all	-221.0
ool	-222.0
▁{	-223.0
ho	-224.0
lement	-225.0
ic	-226.0
up	-227.0
▁can	-228.0
▁on	-229.0
ded	-230.0
bject	-231.0
▁config	-232.0
▁that	-233.0
▁use	-234.0
utput	-235.0
▁al	-236.0
ids	-237.0
ure	-238.0
▁P	-239.0
input	-240.0
sh	-241.0
▁I	-242.0
▁as	-243.0
get	-244.0
ize	-245.0
ist	-246.0
▁co	-247.0
rue	-248.0
▁en	-249.0
rained	-250.0
▁ma	-251.0
num	-252.0
sk	-253.0
gth	-254.0
mplement	-255.0
alse	-256.0
ult	-257.0
▁wh	-258.0
ise	-259.0
▁di	-260.0
▁|	-261.0
lse	-262.0
▁else	-263.0
length	-264.0
el	-265.0
ran	-266.0
cache	-267.0
me	-268.0
▁bool	-269.0
age	-270.0
ver	-271.0
ream	-272.0
ou	-273.0
▁str	-274.0
mplementation	-275.0
con	-276.0
embed	-277.0
▁inst	-278.0
▁S	-279.0
ave	-280.0
form	-281.0
rect	-282.0
ack	-283.0
▁this	-284.0
file	-285.0
res	-286.0
version	-287.0
▁y	-288.0
▁are	-289.0
token	-290.0
▁input	-291.0
▁ra	-292.0
able	-293.0
ill	-294.0
▁C	-295.0
rror	-296.0
▁con	-297.0
Error	-298.0
ust	-299.0
▁:	-300.0
pro	-301.0
ib	-302.0
`,	-303.0
path	-304.0
ction	-305.0
▁raise	-306.0
`.	-307.0
ore	-308.0
ry	-309.0
date	-310.0
kens	-311.0
rans	-312.0
▁key	-313.0
ial	-314.0
its	-315.0
ter	-316.0
comp	-317.0
▁get	-318.0
▁pro	-319.0
implementation	-320.0
ff	-321.0
atch	-322.0
ning	-323.0
quence	-324.0
our	-325.0
ated	-326.0
▁value	-327.0
ance	-328.0
generation	-329.0
art	-330.0
▁log	-331.0
▁False	-332.0
we	-333.0
ibut	-334.0
ER	-335.0
ds	-336.0
cess	-337.0
▁name	-338.0
per	-339.0
pre	-340.0
tensor	-341.0
OR	-342.0
class	-343.0
▁W	-344.0
cor	-345.0
▁set	-346.0
and	-347.0
Tensor	-348.0
ern	-349.0
▁(`	-350.0
dings	-351.0
device	-352.0
load	-353.0
enerate	-354.0
▁do	-355.0
▁[	-356.0
▁r	-357.0
size	-358.0
ights	-359.0
param	-360.0
..	-361.0
ip	-362.0
":	-363.0
be	-364.0
▁li	-365.0
dtype	-366.0
ep	-367.0
head	-368.0
ary	-369.0
ight	-370.0
izer	-371.0
▁file	-372.0
lay	-373.0
▁'	-374.0
que	-375.0
xref	-376.0
▁The	-377.0
▁has	-378.0
▁check	-379.0
fa	-380.0
ive	-381.0
uple	-382.0
value	-383.0
▁will	-384.0
▁R	-385.0
mask	-386.0
compile	-387.0
init	-388.0
ransform	-389.0
▁kwargs	-390.0
).	-391.0
te	-392.0
▁device	-393.0
ug	-394.0
attn	-395.0
▁fun	-396.0
quest	-397.0
Mo	-398.0
▁sub	-399.0
ther	-400.0
war	-401.0
▁==	-402.0
ptional	-403.0
True	-404.0
ition	-405.0
▁dict	-406.0
decoder	-407.0
▁version	-408.0
set	-409.0
us	-410.0
qui	-411.0
tokens	-412.0
▁module	-413.0
acken	-414.0
trained	-415.0
ON	-416.0
point	-417.0
"]	-418.0
▁l	-419.0
om	-420.0
rg	-421.0
ata	-422.0
▁new	-423.0
state	-424.0
his	-425.0
beam	-426.0
etho	-427.0
text	-428.0
ine	-429.0
uld	-430.0
pping	-431.0
▁cache	-432.0
▁object	-433.0
ti	-434.0
▁un	-435.0
py	-436.0
sp	-437.0
ernel	-438.0
tp	-439.0
▁defa	-440.0
loat	-441.0
ature	-442.0
cessor	-443.0
embeddings	-444.0
.__	-445.0
inst	-446.0
),	-447.0
ere	-448.0
▁``	-449.0
▁output	-450.0
os	-451.0
cores	-452.0
▁by	-453.0
lash	-454.0
ackage	-455.0
kernel	-456.0
▁+	-457.0
rit	-458.0
didate	-459.0
▁G	-460.0
▁load	-461.0
▁param	-462.0
▁token	-463.0
▁us	-464.0
Config	-465.0
▁dtype	-466.0
ix	-467.0
pec	-468.0
upp	-469.0
▁If	-470.0
generate	-471.0
ape	-472.0
▁**	-473.0
▁This	-474.0
direct	-475.0
▁E	-476.0
dex	-477.0
ron	-478.0
▁so	-479.0
ception	-480.0
["	-481.0
lic	-482.0
gits	-483.0
▁all	-484.0
ast	-485.0
ger	-486.0
sed	-487.0
▁pre	-488.0
ethod	-489.0
do	-490.0
▁O	-491.0
():	-492.0
quant	-493.0
stant	-494.0
▁getattr	-495.0
ru	-496.0
ized	-497.0
▁app	-498.0
instance	-499.0
▁used	-500.0
▁need	-501.0
▁function	-502.0
ory	-503.0
reT	-504.0
cept	-505.0
keys	-506.0
▁have	-507.0
quences	-508.0
reTrained	-509.0
mm	-510.0
▁>	-511.0
app	-512.0
output	-513.0
▁stream	-514.0
if	-515.0
ass	-516.0
den	-517.0
low	-518.0
lru	-519.0
make	-520.0
check	-521.0
error	-522.0
▁L	-523.0
eature	-524.0
upport	-525.0
optional	-526.0
▁V	-527.0
ign	-528.0
alid	-529.0
ls	-530.0
▁U	-531.0
tra	-532.0
▁True	-533.0
stream	-534.0
constant	-535.0
ty	-536.0
▁B	-537.0
▁ass	-538.0
ustom	-539.0
▁when	-540.0
ces	-541.0
hed	-542.0
▁@_	-543.0
▁init	-544.0
▁class	-545.0
▁install	-546.0
▁sh	-547.0
▁try	-548.0
idden	-549.0
package	-550.0
▁isinstance	-551.0
ir	-552.0
und	-553.0
▁cont	-554.0
erence	-555.0
encoder	-556.0
ransformers	-557.0
fo	-558.0
max	-559.0
inal	-560.0
▁tuple	-561.0
▁res	-562.0
▁you	-563.0
start	-564.0
▁your	-565.0
uration	-566.0
attentions	-567.0
ab	-568.0
ew	-569.0
wn	-570.0
▁D	-571.0
par	-572.0
▁arg	-573.0
▁but	-574.0
▁run	-575.0
▁models	-576.0
yn	-577.0
▁ad	-578.0
▁requi	-579.0
▁default	-580.0
ri	-581.0
`):	-582.0
ber	-583.0
end	-584.0
iss	-585.0
viron	-586.0
▁only	-587.0
stribut	-588.0
are	-589.0
▁mo	-590.0
▁sho	-591.0
flash	-592.0
weight	-593.0
▁weights	-594.0
ia	-595.0
ound	-596.0
▁comp	-597.0
inputs	-598.0
▁tensor	-599.0
▁request	-600.0
ari	-601.0
uto	-602.0
▁int	-603.0
▁encoder	-604.0
],	-605.0
ld	-606.0
▁no	-607.0
atic	-608.0
▁num	-609.0
Model	-610.0
▁decoder	-611.0
MP	-612.0
ied	-613.0
from	-614.0
▁may	-615.0
▁beam	-616.0
ach	-617.0
ity	-618.0
▁logger	-619.0
▁should	-620.0
▁..	-621.0
ally	-622.0
ator	-623.0
layer	-624.0
ang	-625.0
ich	-626.0
pect	-627.0
riter	-628.0
▁Value	-629.0
))	-630.0
lm	-631.0
ION	-632.0
ument	-633.0
▁inputs	-634.0
▁attention	-635.0
▁H	-636.0
irst	-637.0
▁was	-638.0
object	-639.0
pen	-640.0
istant	-641.0
ackends	-642.0
▁ValueError	-643.0
")[	-644.0
ead	-645.0
ved	-646.0
▁av	-647.0
▁old	-648.0
eters	-649.0
PreTrained	-650.0
pretrained	-651.0
▁ac	-652.0
▁at	-653.0
code	-654.0
ision	-655.0
perts	-656.0
IN	-657.0
``	-658.0
ok	-659.0
lif	-660.0
ible	-661.0
dices	-662.0
▁elif	-663.0
▁found	-664.0
▁which	-665.0
pu	-666.0
▁.	-667.0
data	-668.0
scores	-669.0
▁state	-670.0
riteria	-671.0
attribut	-672.0
."	-673.0
//	-674.0
▁spec	-675.0
▁support	-676.0
reference	-677.0
▁candidate	-678.0
amp	-679.0
ctor	-680.0
ource	-681.0
cal	-682.0
map	-683.0
mbed	-684.0
read	-685.0
util	-686.0
older	-687.0
hidden	-688.0
issing	-689.0
▁except	-690.0
▁configuration	-691.0
pos	-692.0
▁In	-693.0
keep	-694.0
time	-695.0
ative	-696.0
weights	-697.0
br	-698.0
ler	-699.0
ttp	-700.0
eturn	-701.0
▁type	-702.0
bo	-703.0
atc	-704.0
ous	-705.0
fter	-706.0
parse	-707.0
urr	-708.0
base	-709.0
face	-710.0
shape	-711.0
▁case	-712.0
logits	-713.0
urrent	-714.0
kernels	-715.0
states	-716.0
▁environ	-717.0
ME	-718.0
aded	-719.0
beams	-720.0
▁list	-721.0
warning	-722.0
stributed	-723.0
:`	-724.0
use	-725.0
▁po	-726.0
onse	-727.0
brary	-728.0
names	-729.0
opping	-730.0
▁error	-731.0
▁gener	-732.0
indices	-733.0
▁argument	-734.0
ny	-735.0
://	-736.0
ard	-737.0
min	-738.0
ffer	-739.0
ample	-740.0
lease	-741.0
▁each	-742.0
layers	-743.0
▁hasattr	-744.0
fin	-745.0
ong	-746.0
alle	-747.0
with	-748.0
▁other	-749.0
xception	-750.0
ERR	-751.0
IMP	-752.0
ORT	-753.0
bug	-754.0
dim	-755.0
fun	-756.0
ies	-757.0
pop	-758.0
▁"_	-759.0
▁os	-760.0
▁{}	-761.0
arch	-762.0
▁any	-763.0
return	-764.0
▁requires	-765.0
AT	-766.0
]:	-767.0
ay	-768.0
ft	-769.0
"):	-770.0
*):	-771.0
lab	-772.0
vision	-773.0
▁using	-774.0
iv	-775.0
ain	-776.0
info	-777.0
save	-778.0
▁cls	-779.0
ERROR	-780.0
ished	-781.0
Object	-782.0
values	-783.0
▁attribut	-784.0
transformers	-785.0
im	-786.0
You	-787.0
▁me	-788.0
batch	-789.0
▁sequences	-790.0
▁environment	-791.0
pl	-792.0
▁j	-793.0
can	-794.0
mpt	-795.0
▁):	-796.0
▁[`	-797.0
▁__	-798.0
ttps	-799.0
False	-800.0
index	-801.0
▁call	-802.0
▁next	-803.0
IMPORT	-804.0
ackend	-805.0
iginal	-806.0
▁after	-807.0
▁embed	-808.0
experts	-809.0
ization	-810.0
▁pretrained	-811.0
In	-812.0
bs	-813.0
gn	-814.0
hf	-815.0
ud	-816.0
not	-817.0
uct	-818.0
▁cor	-819.0
hether	-820.0
▁index	-821.0
▁Return	-822.0
!=	-823.0
no	-824.0
▁M	-825.0
new	-826.0
ging	-827.0
utils	-828.0
▁method	-829.0
▁checkpoint	-830.0
CH	-831.0
oc	-832.0
▁!=	-833.0
move	-834.0
ults	-835.0
float	-836.0
ility	-837.0
▁does	-838.0
▁custom	-839.0
▁initial	-840.0
="	-841.0
RE	-842.0
])	-843.0
sc	-844.0
▁<	-845.0
apt	-846.0
ias	-847.0
son	-848.0
sub	-849.0
▁up	-850.0
main	-851.0
▁base	-852.0
pected	-853.0
ucture	-854.0
▁logits	-855.0
▁tokens	-856.0
af	-857.0
bu	-858.0
▁k	-859.0
ict	-860.0
out	-861.0
▁St	-862.0
line	-863.0
▁exp	-864.0
▁ign	-865.0
▁len	-866.0
▁obj	-867.0
entry	-868.0
▁hand	-869.0
▁same	-870.0
ations	-871.0
▁valid	-872.0
',	-873.0
ST	-874.0
[:	-875.0
df	-876.0
gr	-877.0
AME	-878.0
eter	-879.0
only	-880.0
▁top	-881.0
▁war	-882.0
files	-883.0
▁keys	-884.0
▁read	-885.0
import	-886.0
position	-887.0
De	-888.0
EN	-889.0
op	-890.0
Pro	-891.0
met	-892.0
rep	-893.0
arly	-894.0
defa	-895.0
▁off	-896.0
extra	-897.0
method	-898.0
allable	-899.0
▁Please	-900.0
▁specif	-901.0
processor	-902.0
`]	-903.0
▁}	-904.0
())	-905.0
VER	-906.0
__(	-907.0
ace	-908.0
run	-909.0
ull	-910.0
▁We	-911.0
ixin	-912.0
arget	-913.0
▁pass	-914.0
modules	-915.0
sequences	-916.0
::	-917.0
St	-918.0
ems	-919.0
see	-920.0
zer	-921.0
▁le	-922.0
NAME	-923.0
peed	-924.0
ward	-925.0
Float	-926.0
ignore	-927.0
wnload	-928.0
request	-929.0
▁contin	-930.0
▁values	-931.0
▁library	-932.0
checkpoint	-933.0
FloatTensor	-934.0
unt	-935.0
None	-936.0
Type	-937.0
fore	-938.0
list	-939.0
rapp	-940.0
vert	-941.0
▁For	-942.0
▁cre	-943.0
valid	-944.0
▁batch	-945.0
PreTrainedModel	-946.0
"{	-947.0
':	-948.0
*,	-949.0
tt	-950.0
off	-951.0
bool	-952.0
▁one	-953.0
celer	-954.0
ogits	-955.0
folder	-956.0
▁first	-957.0
▁source	-958.0
▁correct	-959.0
Processor	-960.0
▁assistant	-961.0
back	-962.0
plan	-963.0
Mixin	-964.0
ename	-965.0
▁code	-966.0
▁line	-967.0
▁save	-968.0
append	-969.0
▁scores	-970.0
▁instance	-971.0
▁sequence	-972.0
▁generated	-973.0
ES	-974.0
"""	-975.0
has	-976.0
hes	-977.0
wor	-978.0
ync	-979.0
▁ch	-980.0
bias	-981.0
comm	-982.0
lace	-983.0
▁max	-984.0
▁path	-985.0
ssible	-986.0
ugging	-987.0
▁Check	-988.0
default	-989.0
▁ignore	-990.0
To	-991.0
cur	-992.0
ert	-993.0
obj	-994.0
orm	-995.0
▁ti	-996.0
auto	-997.0
▁pad	-998.0
▁pas	-999.0
Gener	-1000.0
▁shape	-1001.0
quantizer	-1002.0
▁arguments	-1003.0
▁embeddings	-1004.0
eps	-1005.0
hub	-1006.0
old	-1007.0
pad	-1008.0
iler	-1009.0
ocab	-1010.0
▁ser	-1011.0
requi	-1012.0
▁head	-1013.0
▁vari	-1014.0
▁allow	-1015.0
▁layer	-1016.0
ilename	-1017.0
▁passed	-1018.0
backends	-1019.0
finished	-1020.0
▁instead	-1021.0
tokenizer	-1022.0
LL	-1023.0
so	-1024.0
gen	-1025.0
oid	-1026.0
ute	-1027.0
mode	-1028.0
ynam	-1029.0
▁Arg	-1030.0
▁You	-1031.0
ather	-1032.0
▁mean	-1033.0
▁tied	-1034.0
atches	-1035.0
custom	-1036.0
static	-1037.0
▁https	-1038.0
▁start	-1039.0
▁Returns	-1040.0
▁current	-1041.0
▁loading	-1042.0
▁warning	-1043.0
▁requested	-1044.0
MA	-1045.0
ll	-1046.0
iel	-1047.0
Long	-1048.0
radi	-1049.0
seek	-1050.0
▁Any	-1051.0
▁act	-1052.0
▁doc	-1053.0
▁per	-1054.0
alled	-1055.0
▁over	-1056.0
▁some	-1057.0
▁them	-1058.0
▁xref	-1059.0
▁exist	-1060.0
radient	-1061.0
▁direct	-1062.0
criteria	-1063.0
▁feature	-1064.0
LongTensor	-1065.0
uggingface	-1066.0
▁supported	-1067.0
ak	-1068.0
cl	-1069.0
pi	-1070.0
▁id	-1071.0
ense	-1072.0
iven	-1073.0
▁[`~	-1074.0
emory	-1075.0
items	-1076.0
label	-1077.0
tuple	-1078.0
▁here	-1079.0
▁text	-1080.0
embeds	-1081.0
update	-1082.0
▁provi	-1083.0
initial	-1084.0
▁applic	-1085.0
▁runtime	-1086.0
▁Exception	-1087.0
jo	-1088.0
ne	-1089.0
esp	-1090.0
lit	-1091.0
uda	-1092.0
url	-1093.0
▁("	-1094.0
▁hf	-1095.0
lask	-1096.0
mote	-1097.0
zero	-1098.0
▁...	-1099.0
cated	-1100.0
olved	-1101.0
probs	-1102.0
split	-1103.0
ssage	-1104.0
▁Args	-1105.0
Logits	-1106.0
Module	-1107.0
loaded	-1108.0
fferent	-1109.0
▁string	-1110.0
▁diction	-1111.0
▁missing	-1112.0
directory	-1113.0
extractor	-1114.0
**	-1115.0
]]	-1116.0
com	-1117.0
ide	-1118.0
tes	-1119.0
▁Re	-1120.0
gist	-1121.0
json	-1122.0
wise	-1123.0
perty	-1124.0
▁pref	-1125.0
dition	-1126.0
gister	-1127.0
▁avoid	-1128.0
indirect	-1129.0
▁outputs	-1130.0
quantized	-1131.0
▁parameters	-1132.0
"`	-1133.0
ax	-1134.0
by	-1135.0
ING	-1136.0
[:,	-1137.0
ake	-1138.0
exp	-1139.0
rap	-1140.0
yth	-1141.0
▁`(	-1142.0
▁ar	-1143.0
Path	-1144.0
SION	-1145.0
func	-1146.0
tied	-1147.0
▁fin	-1148.0
▁sav	-1149.0
apter	-1150.0
types	-1151.0
vious	-1152.0
▁cast	-1153.0
▁comm	-1154.0
params	-1155.0
prompt	-1156.0
▁given	-1157.0
▁local	-1158.0
context	-1159.0
outputs	-1160.0
▁length	-1161.0
▁restart	-1162.0
structure	-1163.0
▁original	-1164.0
▁tokenizer	-1165.0
▁installation	-1166.0
LI	-1167.0
Li	-1168.0
TS	-1169.0
].	-1170.0
ca	-1171.0
▁%	-1172.0
▁J	-1173.0
cls	-1174.0
oth	-1175.0
red	-1176.0
▁+=	-1177.0
▁De	-1178.0
▁tr	-1179.0
Like	-1180.0
pare	-1181.0
test	-1182.0
vari	-1183.0
word	-1184.0
▁its	-1185.0
count	-1186.0
▁files	-1187.0
epspeed	-1188.0
missing	-1189.0
stopping	-1190.0
▁defaults	-1191.0
▁dictionary	-1192.0
▁implementation	-1193.0
CK	-1194.0
ge	-1195.0
Con	-1196.0
cry	-1197.0
roz	-1198.0
val	-1199.0
▁>=	-1200.0
▁Se	-1201.0
▁ho	-1202.0
lect	-1203.0
root	-1204.0
▁Not	-1205.0
arded	-1206.0
▁keep	-1207.0
▁mode	-1208.0
▁resp	-1209.0
Output	-1210.0
coding	-1211.0
number	-1212.0
ynamic	-1213.0
▁extra	-1214.0
▁before	-1215.0
▁running	-1216.0
▁backends	-1217.0
▁indirect	-1218.0
▁transform	-1219.0
Ex	-1220.0
().	-1221.0
SON	-1222.0
ual	-1223.0
▁Un	-1224.0
▁bu	-1225.0
▁la	-1226.0
amed	-1227.0
ater	-1228.0
ross	-1229.0
▁Att	-1230.0
licit	-1231.0
ultip	-1232.0
ython	-1233.0
▁more	-1234.0
▁note	-1235.0
▁want	-1236.0
▁added	-1237.0
feature	-1238.0
forward	-1239.0
prepare	-1240.0
▁target	-1241.0
▁backend	-1242.0
▁possible	-1243.0
huggingface	-1244.0
.,	-1245.0
SE	-1246.0
nn	-1247.0
ze	-1248.0
.")	-1249.0
eos	-1250.0
kip	-1251.0
log	-1252.0
ses	-1253.0
top	-1254.0
TION	-1255.0
ager	-1256.0
alty	-1257.0
cuda	-1258.0
peft	-1259.0
spec	-1260.0
▁Pdf	-1261.0
▁out	-1262.0
added	-1263.0
enset	-1264.0
first	-1265.0
ready	-1266.0
▁form	-1267.0
▁past	-1268.0
▁time	-1269.0
▁inter	-1270.0
PathLike	-1271.0
rozenset	-1272.0
▁already	-1273.0
▁element	-1274.0
▁setattr	-1275.0
▁whether	-1276.0
▁stopping	-1277.0
▁different	-1278.0
distributed	-1279.0
lp	-1280.0
wh	-1281.0
gre	-1282.0
yle	-1283.0
▁te	-1284.0
pref	-1285.0
qual	-1286.0
▁App	-1287.0
▁end	-1288.0
Token	-1289.0
anged	-1290.0
cause	-1291.0
debug	-1292.0
izing	-1293.0
ually	-1294.0
▁data	-1295.0
▁user	-1296.0
remote	-1297.0
strict	-1298.0
▁trans	-1299.0
allback	-1300.0
property	-1301.0
▁contain	-1302.0
▁modules	-1303.0
▁without	-1304.0
assistant	-1305.0
▁continue	-1306.0
▁register	-1307.0
▁response	-1308.0
▁attribute	-1309.0
▁available	-1310.0
▁processor	-1311.0
▁attributes	-1312.0
checkpointing	-1313.0
})	-1314.0
)),	-1315.0
act	-1316.0
ays	-1317.0
lob	-1318.0
loc	-1319.0
pag	-1320.0
afet	-1321.0
angu	-1322.0
bert	-1323.0
grad	-1324.0
used	-1325.0
▁dim	-1326.0
▁ins	-1327.0
gener	-1328.0
style	-1329.0
▁also	-1330.0
▁auto	-1331.0
▁copy	-1332.0
atched	-1333.0
models	-1334.0
▁match	-1335.0
▁under	-1336.0
Feature	-1337.0
anguage	-1338.0
running	-1339.0
celerate	-1340.0
download	-1341.0
sequence	-1342.0
candidate	-1343.0
▁docstyle	-1344.0
▁provided	-1345.0
▁exception	-1346.0
▁PreTrained	-1347.0
(-	-1348.0
DF	-1349.0
OT	-1350.0
PU	-1351.0
dp	-1352.0
tr	-1353.0
dir	-1354.0
doc	-1355.0
hen	-1356.0
lag	-1357.0
udi	-1358.0
▁`"	-1359.0
▁rv	-1360.0
once	-1361.0
repo	-1362.0
▁```	-1363.0
▁non	-1364.0
▁pos	-1365.0
▁ref	-1366.0
▁rep	-1367.0
ating	-1368.0
idnum	-1369.0
ither	-1370.0
▁JSON	-1371.0
▁like	-1372.0
▁main	-1373.0
▁make	-1374.0
▁open	-1375.0
▁topk	-1376.0
resent	-1377.0
▁there	-1378.0
Decoder	-1379.0
support	-1380.0
▁cached	-1381.0
▁result	-1382.0
▁weight	-1383.0
expected	-1384.0
precated	-1385.0
▁Optional	-1386.0
parameters	-1387.0
▁transformers	-1388.0
LogitsProcessor	-1389.0
)`	-1390.0
Al	-1391.0
IG	-1392.0
CHE	-1393.0
ark	-1394.0
ild	-1395.0
▁sy	-1396.0
List	-1397.0
ints	-1398.0
ride	-1399.0
ting	-1400.0
▁pip	-1401.0
Extra	-1402.0
ended	-1403.0
ffers	-1404.0
paths	-1405.0
▁must	-1406.0
▁they	-1407.0
ensors	-1408.0
ptions	-1409.0
rapped	-1410.0
sample	-1411.0
▁early	-1412.0
▁table	-1413.0
VERSION	-1414.0
message	-1415.0
ultiple	-1416.0
▁loaded	-1417.0
▁defined	-1418.0
▁tensors	-1419.0
Generation	-1420.0
▁frozenset	-1421.0
▁subconfig	-1422.0
▁Generation	-1423.0
▁distributed	-1424.0
`:	-1425.0
gu	-1426.0
}"	-1427.0
}.	-1428.0
IGH	-1429.0
ail	-1430.0
cre	-1431.0
uch	-1432.0
▁%(	-1433.0
▁It	-1434.0
Read	-1435.0
arts	-1436.0
ates	-1437.0
eded	-1438.0
ines	-1439.0
lock	-1440.0
resp	-1441.0
ways	-1442.0
xies	-1443.0
▁det	-1444.0
▁tra	-1445.0
ments	-1446.0
ormal	-1447.0
sable	-1448.0
▁flag	-1449.0
▁repo	-1450.0
spatch	-1451.0
▁final	-1452.0
eration	-1453.0
trailer	-1454.0
▁handle	-1455.0
▁static	-1456.0
▁Whether	-1457.0
afetensors	-1458.0
of	-1459.0
pr	-1460.0
▁K	-1461.0
=__	-1462.0
Any	-1463.0
erk	-1464.0
las	-1465.0
lib	-1466.0
pip	-1467.0
▁:=	-1468.0
anti	-1469.0
copy	-1470.0
gith	-1471.0
host	-1472.0
ince	-1473.0
izes	-1474.0
join	-1475.0
ould	-1476.0
reak	-1477.0
zeug	-1478.0
▁fol	-1479.0
▁min	-1480.0
▁wor	-1481.0
istic	-1482.0
▁back	-1483.0
▁size	-1484.0
▁sure	-1485.0
▁than	-1486.0
github	-1487.0
▁break	-1488.0
▁while	-1489.0
erkzeug	-1490.0
require	-1491.0
▁accept	-1492.0
▁assert	-1493.0
▁follow	-1494.0
▁PdfRead	-1495.0
Exception	-1496.0
▁filename	-1497.0
▁generate	-1498.0
▁instanti	-1499.0
▁position	-1500.0
stribution	-1501.0
▁deprecated	-1502.0
PreTrainedConfig	-1503.0
AS	-1504.0
RO	-1505.0
WE	-1506.0
fn	-1507.0
ml	-1508.0
tx	-1509.0
(),	-1510.0
amb	-1511.0
bbo	-1512.0
clu	-1513.0
ser	-1514.0
▁[]	-1515.0
."""	-1516.0
bbox	-1517.0
curs	-1518.0
ific	-1519.0
over	-1520.0
usal	-1521.0
▁PDF	-1522.0
▁abo	-1523.0
▁par	-1524.0
▁tag	-1525.0
IGHTS	-1526.0
__.__	-1527.0
adata	-1528.0
inter	-1529.0
local	-1530.0
▁When	-1531.0
▁just	-1532.0
atible	-1533.0
gative	-1534.0
result	-1535.0
▁debug	-1536.0
▁float	-1537.0
▁names	-1538.0
▁saved	-1539.0
mapping	-1540.0
process	-1541.0
▁number	-1542.0
▁params	-1543.0
gradient	-1544.0
▁context	-1545.0
Tokenizer	-1546.0
exception	-1547.0
▁specific	-1548.0
FeatureExtra	-1549.0
▁PdfReadError	-1550.0
ativePreTrainedModel	-1551.0
>>	-1552.0
DE	-1553.0
En	-1554.0
PP	-1555.0
RL	-1556.0
rc	-1557.0
▁/	-1558.0
Can	-1559.0
__,	-1560.0
dif	-1561.0
guf	-1562.0
▁Di	-1563.0
▁Lo	-1564.0
▁ca	-1565.0
cont	-1566.0
ield	-1567.0
imum	-1568.0
sted	-1569.0
udio	-1570.0
uper	-1571.0
▁>>>	-1572.0
▁Lic	-1573.0
▁aut	-1574.0
▁ctx	-1575.0
isted	-1576.0
▁into	-1577.0
▁then	-1578.0
▁well	-1579.0
commit	-1580.0
▁Flask	-1581.0
▁where	-1582.0
backend	-1583.0
buffers	-1584.0
current	-1585.0
loading	-1586.0
▁always	-1587.0
▁kernel	-1588.0
▁proper	-1589.0
▁remove	-1590.0
▁update	-1591.0
original	-1592.0
▁because	-1593.0
▁example	-1594.0
▁objects	-1595.0
▁package	-1596.0
startxref	-1597.0
▁expected	-1598.0
▁language	-1599.0
▁returned	-1600.0
▁revision	-1601.0
▁otherwise	-1602.0
initialized	-1603.0
GenerativePreTrainedModel	-1604.0
AR	-1605.0
SA	-1606.0
TR	-1607.0
ux	-1608.0
Fun	-1609.0
The	-1610.0
bab	-1611.0
dal	-1612.0
eam	-1613.0
hav	-1614.0
ree	-1615.0
sdp	-1616.0
▁En	-1617.0
▁he	-1618.0
▁nn	-1619.0
hash	-1620.0
rank	-1621.0
▁bet	-1622.0
▁don	-1623.0
▁ret	-1624.0
ailab	-1625.0
allel	-1626.0
ernal	-1627.0
attern	-1628.0
gather	-1629.0
labels	-1630.0
▁entry	-1631.0
▁super	-1632.0
adapter	-1633.0
changed	-1634.0
penalty	-1635.0
tensors	-1636.0
▁create	-1637.0
▁either	-1638.0
function	-1639.0
▁created	-1640.0
rappedFun	-1641.0
▁Callable	-1642.0
▁explicit	-1643.0
▁variable	-1644.0
▁warnings	-1645.0
ailability	-1646.0
▁parameter	-1647.0
▁startxref	-1648.0
classmethod	-1649.0
▁initialize	-1650.0
fp	-1651.0
my	-1652.0
og	-1653.0
)`.	-1654.0
add	-1655.0
afe	-1656.0
air	-1657.0
cpu	-1658.0
nly	-1659.0
ray	-1660.0
sue	-1661.0
vel	-1662.0
}")	-1663.0
▁Co	-1664.0
▁To	-1665.0
▁vi	-1666.0
mpty	-1667.0
roup	-1668.0
▁add	-1669.0
abled	-1670.0
atten	-1671.0
early	-1672.0
ssion	-1673.0
vocab	-1674.0
▁Load	-1675.0
▁Note	-1676.0
▁look	-1677.0
ential	-1678.0
▁cross	-1679.0
▁issue	-1680.0
▁modif	-1681.0
▁vocab	-1682.0
Context	-1683.0
▁cannot	-1684.0
▁commit	-1685.0
▁folder	-1686.0
▁hidden	-1687.0
▁memory	-1688.0
▁needed	-1689.0
Criteria	-1690.0
ctionary	-1691.0
ditional	-1692.0
▁experts	-1693.0
▁directly	-1694.0
▁fallback	-1695.0
▁required	-1696.0
▁applicable	-1697.0
▁processors	-1698.0
quantization	-1699.0
configuration	-1700.0
▁distribution	-1701.0
FA	-1702.0
Re	-1703.0
ACK	-1704.0
__}	-1705.0
ctx	-1706.0
env	-1707.0
idx	-1708.0
unk	-1709.0
ush	-1710.0
▁TO	-1711.0
▁`_	-1712.0
▁`{	-1713.0
▁ev	-1714.0
ange	-1715.0
ared	-1716.0
ends	-1717.0
havi	-1718.0
just	-1719.0
lied	-1720.0
sent	-1721.0
▁NOT	-1722.0
▁URL	-1723.0
▁cur	-1724.0
Cache	-1725.0
itesp	-1726.0
lobal	-1727.0
named	-1728.0
▁attn	-1729.0
▁been	-1730.0
▁last	-1731.0
▁mask	-1732.0
▁skip	-1733.0
andard	-1734.0
format	-1735.0
lasses	-1736.0
starts	-1737.0
verter	-1738.0
▁force	-1739.0
WEIGHTS	-1740.0
cursive	-1741.0
replace	-1742.0
uristic	-1743.0
▁offset	-1744.0
▁search	-1745.0
▁License	-1746.0
▁sharded	-1747.0
▁variant	-1748.0
generator	-1749.0
transform	-1750.0
▁resolved	-1751.0
startswith	-1752.0
▁deepspeed	-1753.0
▁subfolder	-1754.0
'}	-1755.0
,)	-1756.0
AG	-1757.0
DI	-1758.0
DO	-1759.0
LO	-1760.0
(".	-1761.0
MIN	-1762.0
TOR	-1763.0
War	-1764.0
__)	-1765.0
cli	-1766.0
ery	-1767.0
ism	-1768.0
mit	-1769.0
pus	-1770.0
seq	-1771.0
sum	-1772.0
tag	-1773.0
▁["	-1774.0
▁sc	-1775.0
▁ty	-1776.0
atus	-1777.0
find	-1778.0
mage	-1779.0
mean	-1780.0
pipe	-1781.0
raph	-1782.0
sync	-1783.0
very	-1784.0
writ	-1785.0
▁Hub	-1786.0
▁See	-1787.0
▁man	-1788.0
▁sys	-1789.0
Inter	-1790.0
TIONS	-1791.0
heads	-1792.0
ities	-1793.0
space	-1794.0
▁args	-1795.0
ethods	-1796.0
memory	-1797.0
prefix	-1798.0
remove	-1799.0
search	-1800.0
▁would	-1801.0
enabled	-1802.0
esponse	-1803.0
▁enable	-1804.0
▁serial	-1805.0
▁unused	-1806.0
Callable	-1807.0
endswith	-1808.0
itespace	-1809.0
pipeline	-1810.0
resolved	-1811.0
▁continu	-1812.0
▁convert	-1813.0
▁disable	-1814.0
▁dynamic	-1815.0
▁kernels	-1816.0
▁keyword	-1817.0
▁returns	-1818.0
▁setting	-1819.0
▁decoding	-1820.0
▁finished	-1821.0
▁previous	-1822.0
conversion	-1823.0
▁Attention	-1824.0
▁structure	-1825.0
▁AppContext	-1826.0
▁application	-1827.0
▁versionadded	-1828.0
)}	-1829.0
=-	-1830.0
AL	-1831.0
EL	-1832.0
FE	-1833.0
YP	-1834.0
`)	-1835.0
yT	-1836.0
.",	-1837.0
Var	-1838.0
egr	-1839.0
ful	-1840.0
her	-1841.0
inj	-1842.0
mus	-1843.0
ner	-1844.0
uns	-1845.0
wer	-1846.0
▁Ex	-1847.0
▁py	-1848.0
MAPP	-1849.0
gpus	-1850.0
hand	-1851.0
heme	-1852.0
meta	-1853.0
musa	-1854.0
nown	-1855.0
sign	-1856.0
topk	-1857.0
▁Set	-1858.0
▁map	-1859.0
▁rel	-1860.0
clude	-1861.0
eager	-1862.0
equal	-1863.0
https	-1864.0
ields	-1865.0
issue	-1866.0
paged	-1867.0
uring	-1868.0
uting	-1869.0
▁arch	-1870.0
▁full	-1871.0
▁json	-1872.0
▁part	-1873.0
▁step	-1874.0
▁view	-1875.0
ctions	-1876.0
domain	-1877.0
ensure	-1878.0
integr	-1879.0
target	-1880.0
yTorch	-1881.0
▁lines	-1882.0
▁might	-1883.0
MAPPING	-1884.0
archive	-1885.0
library	-1886.0
objects	-1887.0
offload	-1888.0
variant	-1889.0
▁actual	-1890.0
▁behavi	-1891.0
▁called	-1892.0
▁detect	-1893.0
▁prefix	-1894.0
▁probab	-1895.0
cryption	-1896.0
filename	-1897.0
response	-1898.0
▁mapping	-1899.0
▁methods	-1900.0
▁proxies	-1901.0
Generator	-1902.0
▁download	-1903.0
▁endpoint	-1904.0
▁directory	-1905.0
▁extractor	-1906.0
▁following	-1907.0
▁functions	-1908.0
▁recursive	-1909.0
▁submodule	-1910.0
didateGenerator	-1911.0
▁transformation	-1912.0
(*	-1913.0
AN	-1914.0
Di	-1915.0
GI	-1916.0
Qu	-1917.0
TP	-1918.0
ao	-1919.0
fl	-1920.0
sg	-1921.0
}`	-1922.0
▁x	-1923.0
(**	-1924.0
ell	-1925.0
ged	-1926.0
mpl	-1927.0
nal	-1928.0
▁"/	-1929.0
▁({	-1930.0
▁Ad	-1931.0
▁So	-1932.0
▁{'	-1933.0
Base	-1934.0
Info	-1935.0
amba	-1936.0
atac	-1937.0
call	-1938.0
case	-1939.0
full	-1940.0
inja	-1941.0
lear	-1942.0
stop	-1943.0
▁Use	-1944.0
▁`__	-1945.0
▁due	-1946.0
▁met	-1947.0
▁now	-1948.0
ATION	-1949.0
agent	-1950.0
allow	-1951.0
bytes	-1952.0
crypt	-1953.0
posed	-1954.0
trust	-1955.0
usion	-1956.0
▁TODO	-1957.0
▁even	-1958.0
▁such	-1959.0
▁take	-1960.0
▁work	-1961.0
▁Tuple	-1962.0
▁being	-1963.0
▁could	-1964.0
▁flash	-1965.0
▁since	-1966.0
▁still	-1967.0
▁trust	-1968.0
matches	-1969.0
padding	-1970.0
▁Stream	-1971.0
▁format	-1972.0
▁inside	-1973.0
▁normal	-1974.0
▁select	-1975.0
▁server	-1976.0
metadata	-1977.0
requires	-1978.0
revision	-1979.0
▁PyTorch	-1980.0
▁compile	-1981.0
▁offload	-1982.0
attribute	-1983.0
celerator	-1984.0
▁criteria	-1985.0
▁streamer	-1986.0
▁WrappedFun	-1987.0
▁initialized	-1988.0
('	-1989.0
CO	-1990.0
LE	-1991.0
][	-1992.0
_(	-1993.0
ec	-1994.0
()`	-1995.0
ATT	-1996.0
]`,	-1997.0
ama	-1998.0
ier	-1999.0
led	-2000.0
lue	-2001.0
oks	-2002.0
org	-2003.0
ose	-2004.0
▁:]	-2005.0
docs	-2006.0
ling	-2007.0
ores	-2008.0
past	-2009.0
ping	-2010.0
▁gen	-2011.0
▁hub	-2012.0
().__	-2013.0
anded	-2014.0
erged	-2015.0
group	-2016.0
itect	-2017.0
luepr	-2018.0
moved	-2019.0
pdate	-2020.0
ribut	-2021.0
sizes	-2022.0
store	-2023.0
▁stop	-2024.0
▁sync	-2025.0
▁thro	-2026.0
▁were	-2027.0
string	-2028.0
▁autom	-2029.0
▁beams	-2030.0
▁bytes	-2031.0
▁doesn	-2032.0
▁empty	-2033.0
environ	-2034.0
topping	-2035.0
▁layers	-2036.0
▁tuples	-2037.0
itecture	-2038.0
multiple	-2039.0
previous	-2040.0
▁applied	-2041.0
▁forward	-2042.0
▁handler	-2043.0
▁prefill	-2044.0
arameters	-2045.0
deepspeed	-2046.0
formation	-2047.0
▁override	-2048.0
accelerate	-2049.0
▁installed	-2050.0
▁compatible	-2051.0
integrations	-2052.0
ctionaryObject	-2053.0
toppingCriteria	-2054.0
▁GenerationConfig	-2055.0
▁PreTrainedConfig	-2056.0
CandidateGenerator	-2057.0
((	-2058.0
IS	-2059.0
LA	-2060.0
[-	-2061.0
ap	-2062.0
kg	-2063.0
ww	-2064.0
Att	-2065.0
ERN	-2066.0
ERS	-2067.0
MAX	-2068.0
__.	-2069.0
acy	-2070.0
any	-2071.0
ced	-2072.0
isf	-2073.0
src	-2074.0
til	-2075.0
▁--	-2076.0
▁OS	-2077.0
▁`.	-2078.0
▁pl	-2079.0
▁ro	-2080.0
gene	-2081.0
ical	-2082.0
lice	-2083.0
meth	-2084.0
mmap	-2085.0
next	-2086.0
ries	-2087.0
ulti	-2088.0
ween	-2089.0
▁ALL	-2090.0
▁ext	-2091.0
▁loc	-2092.0
CHECK	-2093.0
ERNEL	-2094.0
Embed	-2095.0
Quant	-2096.0
atisf	-2097.0
audio	-2098.0
izers	-2099.0
match	-2100.0
ogene	-2101.0
▁disk	-2102.0
▁host	-2103.0
▁indi	-2104.0
▁pair	-2105.0
▁safe	-2106.0
Return	-2107.0
applic	-2108.0
ension	-2109.0
ically	-2110.0
▁Class	-2111.0
▁Union	-2112.0
▁depen	-2113.0
▁idnum	-2114.0
▁inher	-2115.0
▁repos	-2116.0
▁those	-2117.0
▁types	-2118.0
convert	-2119.0
entries	-2120.0
greater	-2121.0
▁Import	-2122.0
▁causal	-2123.0
▁retval	-2124.0
▁synced	-2125.0
Generate	-2126.0
atisfied	-2127.0
dispatch	-2128.0
internal	-2129.0
modeling	-2130.0
resizing	-2131.0
▁between	-2132.0
▁configs	-2133.0
▁devices	-2134.0
▁options	-2135.0
▁special	-2136.0
iteration	-2137.0
parameter	-2138.0
signature	-2139.0
supported	-2140.0
▁Generate	-2141.0
▁gradient	-2142.0
▁standard	-2143.0
▁versions	-2144.0
ctionMixin	-2145.0
▁condition	-2146.0
▁embedding	-2147.0
safetensors	-2148.0
▁containing	-2149.0
▁explicitly	-2150.0
▁registered	-2151.0
▁information	-2152.0
GenerationMixin	-2153.0
▁versionchanged	-2154.0
([	-2155.0
({	-2156.0
DP	-2157.0
PI	-2158.0
PT	-2159.0
QU	-2160.0
dy	-2161.0
ie	-2162.0
io	-2163.0
▁q	-2164.0
)):	-2165.0
:`.	-2166.0
ALL	-2167.0
SER	-2168.0
SGI	-2169.0
STR	-2170.0
__`	-2171.0
``.	-2172.0
dev	-2173.0
err	-2174.0
hpu	-2175.0
jor	-2176.0
opt	-2177.0
▁()	-2178.0
▁sm	-2179.0
▁tw	-2180.0
Line	-2181.0
Mode	-2182.0
ackw	-2183.0
byte	-2184.0
diff	-2185.0
down	-2186.0
gguf	-2187.0
ived	-2188.0
lama	-2189.0
less	-2190.0
loss	-2191.0
mble	-2192.0
ored	-2193.0
push	-2194.0
uron	-2195.0
▁att	-2196.0
▁der	-2197.0
▁inf	-2198.0
▁see	-2199.0
Align	-2200.0
acing	-2201.0
apply	-2202.0
etect	-2203.0
level	-2204.0
orted	-2205.0
other	-2206.0
▁...]	-2207.0
▁WSGI	-2208.0
▁both	-2209.0
▁diff	-2210.0
▁find	-2211.0
▁push	-2212.0
▁root	-2213.0
▁test	-2214.0
▁very	-2215.0
▁writ	-2216.0
Linear	-2217.0
adjust	-2218.0
buffer	-2219.0
cached	-2220.0
mplate	-2221.0
points	-2222.0
rapper	-2223.0
untime	-2224.0
▁Other	-2225.0
▁Store	-2226.0
▁about	-2227.0
▁datac	-2228.0
▁decor	-2229.0
▁yield	-2230.0
atterns	-2231.0
devices	-2232.0
edError	-2233.0
options	-2234.0
▁nested	-2235.0
▁prompt	-2236.0
▁status	-2237.0
ogeneous	-2238.0
otential	-2239.0
supports	-2240.0
▁Example	-2241.0
▁perform	-2242.0
▁present	-2243.0
▁removed	-2244.0
▁specify	-2245.0
Embedding	-2246.0
heuristic	-2247.0
▁negative	-2248.0
▁resource	-2249.0
▁werkzeug	-2250.0
encryption	-2251.0
unexpected	-2252.0
whitespace	-2253.0
▁automatic	-2254.0
▁transposed	-2255.0
availability	-2256.0
coderDecoder	-2257.0
requirements	-2258.0
▁architecture	-2259.0
▁instantiated	-2260.0
FeatureExtractor	-2261.0
".	-2262.0
AC	-2263.0
BU	-2264.0
EX	-2265.0
NC	-2266.0
OS	-2267.0
TO	-2268.0
Un	-2269.0
ta	-2270.0
}'	-2271.0
▁X	-2272.0
"),	-2273.0
"].	-2274.0
Not	-2275.0
TTP	-2276.0
edi	-2277.0
esh	-2278.0
non	-2279.0
the	-2280.0
tpu	-2281.0
ugh	-2282.0
ump	-2283.0
ves	-2284.0
wit	-2285.0
▁Be	-2286.0
▁By	-2287.0
▁ob	-2288.0
▁{"	-2289.0
Beam	-2290.0
Dict	-2291.0
Fast	-2292.0
ateg	-2293.0
disk	-2294.0
gacy	-2295.0
hook	-2296.0
pped	-2297.0
rong	-2298.0
sing	-2299.0
ware	-2300.0
▁Ass	-2301.0
▁Can	-2302.0
▁Get	-2303.0
▁Pro	-2304.0
▁aux	-2305.0
▁col	-2306.0
▁imp	-2307.0
▁two	-2308.0
▁url	-2309.0
▁who	-2310.0
after	-2311.0
align	-2312.0
build	-2313.0
grads	-2314.0
mamba	-2315.0
modal	-2316.0
range	-2317.0
▁Only	-2318.0
▁Path	-2319.0
▁Skip	-2320.0
▁best	-2321.0
▁cons	-2322.0
▁mark	-2323.0
▁plan	-2324.0
▁swit	-2325.0
▁tags	-2326.0
create	-2327.0
ribute	-2328.0
scheme	-2329.0
▁cases	-2330.0
▁later	-2331.0
▁means	-2332.0
▁named	-2333.0
▁needs	-2334.0
▁point	-2335.0
etition	-2336.0
flatten	-2337.0
ibility	-2338.0
pytorch	-2339.0
special	-2340.0
▁Tensor	-2341.0
▁Update	-2342.0
▁buffer	-2343.0
▁change	-2344.0
▁during	-2345.0
▁errors	-2346.0
▁propag	-2347.0
▁shared	-2348.0
variance	-2349.0
▁OSError	-2350.0
▁adapter	-2351.0
▁derived	-2352.0
▁indices	-2353.0
▁reposit	-2354.0
Attention	-2355.0
offloaded	-2356.0
▁behavior	-2357.0
▁dispatch	-2358.0
▁supports	-2359.0
▁correctly	-2360.0
▁iteration	-2361.0
▁reference	-2362.0
▁specified	-2363.0
unsatisfied	-2364.0
▁accelerate	-2365.0
▁dynamically	-2366.0
▁recursively	-2367.0
▁safetensors	-2368.0
▁PreTrainedModel	-2369.0
toppingCriteriaList	-2370.0
={	-2371.0
CA	-2372.0
ED	-2373.0
IZ	-2374.0
Se	-2375.0
ey	-2376.0
ps	-2377.0
rv	-2378.0
").	-2379.0
("_	-2380.0
()}	-2381.0
)`,	-2382.0
END	-2383.0
For	-2384.0
LIC	-2385.0
YPE	-2386.0
`],	-2387.0
api	-2388.0
gex	-2389.0
imp	-2390.0
jax	-2391.0
lex	-2392.0
mak	-2393.0
man	-2394.0
mps	-2395.0
rel	-2396.0
ten	-2397.0
uff	-2398.0
▁"`	-2399.0
▁Th	-2400.0
▁gu	-2401.0
SAFE	-2402.0
book	-2403.0
cond	-2404.0
fsdp	-2405.0
lain	-2406.0
like	-2407.0
rope	-2408.0
sdpa	-2409.0
tags	-2410.0
tear	-2411.0
umpy	-2412.0
ving	-2413.0
warn	-2414.0
▁Con	-2415.0
▁GPU	-2416.0
▁del	-2417.0
▁exc	-2418.0
▁jax	-2419.0
▁own	-2420.0
▁pkg	-2421.0
▁seq	-2422.0
▁sil	-2423.0
finit	-2424.0
iding	-2425.0
ining	-2426.0
lient	-2427.0
major	-2428.0
spect	-2429.0
trans	-2430.0
uture	-2431.0
write	-2432.0
zeros	-2433.0
▁Comp	-2434.0
▁NotI	-2435.0
▁Prep	-2436.0
▁most	-2437.0
▁soft	-2438.0
SERVER	-2439.0
Stream	-2440.0
before	-2441.0
common	-2442.0
izable	-2443.0
serial	-2444.0
source	-2445.0
▁Flash	-2446.0
▁above	-2447.0
▁alloc	-2448.0
▁block	-2449.0
▁equal	-2450.0
▁indic	-2451.0
▁order	-2452.0
▁their	-2453.0
compute	-2454.0
dynamic	-2455.0
ilation	-2456.0
▁Module	-2457.0
▁Remove	-2458.0
▁active	-2459.0
▁exists	-2460.0
▁forwar	-2461.0
▁python	-2462.0
▁switch	-2463.0
matching	-2464.0
negative	-2465.0
notation	-2466.0
parallel	-2467.0
▁Runtime	-2468.0
▁message	-2469.0
▁process	-2470.0
▁pytorch	-2471.0
▁require	-2472.0
▁through	-2473.0
Interface	-2474.0
atibility	-2475.0
embedding	-2476.0
▁batching	-2477.0
▁callable	-2478.0
▁encoding	-2479.0
▁existing	-2480.0
▁extended	-2481.0
▁modeling	-2482.0
▁optional	-2483.0
▁relative	-2484.0
exceptions	-2485.0
▁dataclass	-2486.0
▁potential	-2487.0
▁StreamType	-2488.0
▁continuous	-2489.0
▁repository	-2490.0
▁ImportError	-2491.0
▁accelerator	-2492.0
▁checkpoints	-2493.0
▁NotImplement	-2494.0
▁RuntimeError	-2495.0
EncoderDecoder	-2496.0
▁automatically	-2497.0
▁GenerationMode	-2498.0
▁NotImplementedError	-2499.0
FeatureExtractionMixin	-2500.0
Co	-2501.0
FT	-2502.0
FU	-2503.0
IL	-2504.0
YT	-2505.0
[[	-2506.0
`"	-2507.0
dm	-2508.0
mb	-2509.0
mi	-2510.0
qa	-2511.0
zy	-2512.0
"])	-2513.0
("/	-2514.0
...	-2515.0
REF	-2516.0
SDP	-2517.0
Stm	-2518.0
Tip	-2519.0
`."	-2520.0
alt	-2521.0
bit	-2522.0
dow	-2523.0
ite	-2524.0
lev	-2525.0
oog	-2526.0
qdm	-2527.0
tie	-2528.0
zip	-2529.0
▁#:	-2530.0
▁'{	-2531.0
▁//	-2532.0
▁An	-2533.0
▁No	-2534.0
▁ag	-2535.0
▁oc	-2536.0
▁tp	-2537.0
)`):	-2538.0
FUNC	-2539.0
Pass	-2540.0
This	-2541.0
ages	-2542.0
ails	-2543.0
ards	-2544.0
arge	-2545.0
atal	-2546.0
blob	-2547.0
cord	-2548.0
duce	-2549.0
exts	-2550.0
fast	-2551.0
hits	-2552.0
open	-2553.0
peer	-2554.0
stra	-2555.0
tain	-2556.0
tell	-2557.0
this	-2558.0
ully	-2559.0
view	-2560.0
wrap	-2561.0
▁"__	-2562.0
▁Min	-2563.0
▁ali	-2564.0
▁eos	-2565.0
▁few	-2566.0
▁let	-2567.0
▁tie	-2568.0
▁yet	-2569.0
CACHE	-2570.0
State	-2571.0
TORCH	-2572.0
block	-2573.0
force	-2574.0
igger	-2575.0
image	-2576.0
indow	-2577.0
ingle	-2578.0
maker	-2579.0
oogle	-2580.0
raise	-2581.0
right	-2582.0
table	-2583.0
using	-2584.0
▁Base	-2585.0
▁byte	-2586.0
▁desc	-2587.0
▁disc	-2588.0
▁gguf	-2589.0
▁loss	-2590.0
▁noqa	-2591.0
▁ones	-2592.0
▁what	-2593.0
Warper	-2594.0
decode	-2595.0
enalty	-2596.0
finity	-2597.0
global	-2598.0
neuron	-2599.0
unused	-2600.0
▁array	-2601.0
▁assum	-2602.0
▁field	-2603.0
▁modal	-2604.0
▁score	-2605.0
▁shard	-2606.0
▁stack	-2607.0
▁until	-2608.0
athered	-2609.0
content	-2610.0
correct	-2611.0
crypted	-2612.0
routing	-2613.0
sharded	-2614.0
testing	-2615.0
▁bluepr	-2616.0
▁fields	-2617.0
▁necess	-2618.0
▁parent	-2619.0
▁raised	-2620.0
▁saving	-2621.0
▁typing	-2622.0
▁useful	-2623.0
CHECKING	-2624.0
Response	-2625.0
agemaker	-2626.0
explicit	-2627.0
possible	-2628.0
specific	-2629.0
validate	-2630.0
▁allowed	-2631.0
▁another	-2632.0
▁calling	-2633.0
▁headers	-2634.0
▁inspect	-2635.0
▁pointer	-2636.0
▁provide	-2637.0
▁replace	-2638.0
FUNCTIONS	-2639.0
ismatched	-2640.0
requested	-2641.0
▁ClassVar	-2642.0
▁document	-2643.0
▁elements	-2644.0
▁expanded	-2645.0
▁multiple	-2646.0
▁selected	-2647.0
▁submodel	-2648.0
▁Attribute	-2649.0
▁Otherwise	-2650.0
▁importlib	-2651.0
▁quantized	-2652.0
▁subdomain	-2653.0
ConfigMixin	-2654.0
ModelOutput	-2655.0
▁covariance	-2656.0
▁transition	-2657.0
LogitsWarper	-2658.0
▁probability	-2659.0
TokenizerBase	-2660.0
▁Transformers	-2661.0
EncoderDecoderOutput	-2662.0
(_	-2663.0
CE	-2664.0
EO	-2665.0
LM	-2666.0
LT	-2667.0
QQ	-2668.0
TY	-2669.0
We	-2670.0
da	-2671.0
gh	-2672.0
ht	-2673.0
hy	-2674.0
tC	-2675.0
▁&	-2676.0
▁]	-2677.0
"`,	-2678.0
'},	-2679.0
(__	-2680.0
:`~	-2681.0
DEX	-2682.0
Hub	-2683.0
LIP	-2684.0
Pdf	-2685.0
URE	-2686.0
`).	-2687.0
``,	-2688.0
cat	-2689.0
cro	-2690.0
det	-2691.0
ech	-2692.0
etc	-2693.0
gpu	-2694.0
ind	-2695.0
jit	-2696.0
mtp	-2697.0
now	-2698.0
npu	-2699.0
oci	-2700.0
ors	-2701.0
pri	-2702.0
rie	-2703.0
sav	-2704.0
tal	-2705.0
▁FA	-2706.0
▁IS	-2707.0
▁OR	-2708.0
▁TP	-2709.0
▁bo	-2710.0
▁go	-2711.0
▁lm	-2712.0
▁sn	-2713.0
AltC	-2714.0
Auto	-2715.0
BACK	-2716.0
Only	-2717.0
anto	-2718.0
ason	-2719.0
ayer	-2720.0
cast	-2721.0
clip	-2722.0
deep	-2723.0
emma	-2724.0
free	-2725.0
html	-2726.0
http	-2727.0
olve	-2728.0
ough	-2729.0
part	-2730.0
peat	-2731.0
side	-2732.0
ties	-2733.0
ummy	-2734.0
vent	-2735.0
▁"")	-2736.0
▁API	-2737.0
▁Got	-2738.0
▁[])	-2739.0
▁abs	-2740.0
▁ans	-2741.0
▁did	-2742.0
▁fix	-2743.0
▁pil	-2744.0
▁src	-2745.0
▁std	-2746.0
ATTEN	-2747.0
INDEX	-2748.0
ained	-2749.0
clone	-2750.0
ffect	-2751.0
greed	-2752.0
ilers	-2753.0
itial	-2754.0
known	-2755.0
lower	-2756.0
lying	-2757.0
mount	-2758.0
olute	-2759.0
order	-2760.0
shard	-2761.0
strip	-2762.0
▁Copy	-2763.0
▁Here	-2764.0
▁NOTE	-2765.0
▁Some	-2766.0
▁Type	-2767.0
▁buil	-2768.0
▁disp	-2769.0
▁func	-2770.0
▁know	-2771.0
▁loop	-2772.0
▁zero	-2773.0
Detect	-2774.0
ERNELS	-2775.0
albert	-2776.0
atalog	-2777.0
covery	-2778.0
extend	-2779.0
fusion	-2780.0
itsand	-2781.0
levant	-2782.0
licate	-2783.0
offset	-2784.0
quanto	-2785.0
stanti	-2786.0
▁Quant	-2787.0
▁backw	-2788.0
▁based	-2789.0
▁graph	-2790.0
▁hooks	-2791.0
▁ident	-2792.0
▁large	-2793.0
▁multi	-2794.0
▁never	-2795.0
▁slice	-2796.0
▁store	-2797.0
▁takes	-2798.0
▁total	-2799.0
Warning	-2800.0
ability	-2801.0
altclip	-2802.0
ategies	-2803.0
bugInfo	-2804.0
configs	-2805.0
diction	-2806.0
grouped	-2807.0
ilities	-2808.0
inspect	-2809.0
ociated	-2810.0
proxies	-2811.0
session	-2812.0
▁Logits	-2813.0
▁legacy	-2814.0
▁lookup	-2815.0
▁obtain	-2816.0
▁reason	-2817.0
▁silent	-2818.0
▁sorted	-2819.0
▁strict	-2820.0
contexts	-2821.0
ensemble	-2822.0
extended	-2823.0
template	-2824.0
▁Encoder	-2825.0
▁Initial	-2826.0
▁Prepare	-2827.0
▁changed	-2828.0
▁classes	-2829.0
▁consist	-2830.0
▁include	-2831.0
▁interim	-2832.0
▁logging	-2833.0
▁matches	-2834.0
▁outside	-2835.0
▁usually	-2836.0
▁writing	-2837.0
PdfObject	-2838.0
interface	-2839.0
subfolder	-2840.0
▁Instanti	-2841.0
▁Response	-2842.0
▁assisted	-2843.0
▁contains	-2844.0
▁matching	-2845.0
▁modality	-2846.0
▁password	-2847.0
▁relevant	-2848.0
OnlyOutput	-2849.0
compatible	-2850.0
initialize	-2851.0
processing	-2852.0
repetition	-2853.0
▁blueprint	-2854.0
▁converter	-2855.0
▁decorator	-2856.0
▁dimension	-2857.0
▁generator	-2858.0
▁represent	-2859.0
itsandbytes	-2860.0
torchvision	-2861.0
▁Additional	-2862.0
▁associated	-2863.0
▁attentions	-2864.0
▁conversion	-2865.0
▁unexpected	-2866.0
▁unfinished	-2867.0
staticmethod	-2868.0
ProcessorList	-2869.0
▁Quantization	-2870.0
▁availability	-2871.0
▁checkpointing	-2872.0
▁AttributeError	-2873.0
▁StoreException	-2874.0
GenerationConfig	-2875.0
DecoderOnlyOutput	-2876.0
▁DictionaryObject	-2877.0
▁LogitsProcessorList	-2878.0
▁StoppingCriteriaList	-2879.0
')	-2880.0
AD	-2881.0
IC	-2882.0
IO	-2883.0
OU	-2884.0
TE	-2885.0
UD	-2886.0
_{	-2887.0
cy	-2888.0
nr	-2889.0
nx	-2890.0
▁~	-2891.0
AGE	-2892.0
ALU	-2893.0
CON	-2894.0
EOF	-2895.0
FLO	-2896.0
IBU	-2897.0
LAS	-2898.0
Len	-2899.0
Max	-2900.0
TAG	-2901.0
`].	-2902.0
aut	-2903.0
cum	-2904.0
cut	-2905.0
epS	-2906.0
exc	-2907.0
foo	-2908.0
inf	-2909.0
ole	-2910.0
pix	-2911.0
ppe	-2912.0
req	-2913.0
ssm	-2914.0
stm	-2915.0
ted	-2916.0
}.{	-2917.0
▁")	-2918.0
▁"@	-2919.0
▁AN	-2920.0
▁Al	-2921.0
▁BC	-2922.0
▁Ne	-2923.0
▁PE	-2924.0
▁TH	-2925.0
▁fl	-2926.0
▁kw	-2927.0
...,	-2928.0
ORCH	-2929.0
TERS	-2930.0
VALU	-2931.0
anch	-2932.0
aris	-2933.0
ilon	-2934.0
into	-2935.0
item	-2936.0
lete	-2937.0
long	-2938.0
mark	-2939.0
onnx	-2940.0
ools	-2941.0
pose	-2942.0
repr	-2943.0
ress	-2944.0
rove	-2945.0
send	-2946.0
stin	-2947.0
stru	-2948.0
user	-2949.0
vide	-2950.0
▁err	-2951.0
▁etc	-2952.0
▁ids	-2953.0
▁pri	-2954.0
▁raw	-2955.0
▁tri	-2956.0
▁via	-2957.0
FLOAT	-2958.0
Layer	-2959.0
Llama	-2960.0
Store	-2961.0
Value	-2962.0
ached	-2963.0
ambda	-2964.0
aming	-2965.0
andas	-2966.0
asing	-2967.0
async	-2968.0
ately	-2969.0
atter	-2970.0
curse	-2971.0
dated	-2972.0
delta	-2973.0
erver	-2974.0
iling	-2975.0
jinja	-2976.0
lpers	-2977.0
orage	-2978.0
peech	-2979.0
pixel	-2980.0
ppear	-2981.0
regex	-2982.0
saved	-2983.0
there	-2984.0
uffix	-2985.0
ulary	-2986.0
unity	-2987.0
ynamo	-2988.0
▁Beam	-2989.0
▁FSDP	-2990.0
▁HTTP	-2991.0
▁Spec	-2992.0
▁TYPE	-2993.0
▁Will	-2994.0
▁atte	-2995.0
▁attr	-2996.0
▁auth	-2997.0
▁fail	-2998.0
▁info	-2999.0
▁iter	-3000.0
▁lead	-3001.0
▁meta	-3002.0
▁much	-3003.0
▁once	-3004.0
▁oper	-3005.0
▁sign	-3006.0
▁simp	-3007.0
▁warn	-3008.0
Decode	-3009.0
Length	-3010.0
alling	-3011.0
anchor	-3012.0
apters	-3013.0
arange	-3014.0
arison	-3015.0
ctools	-3016.0
expand	-3017.0
faults	-3018.0
floats	-3019.0
google	-3020.0
header	-3021.0
issues	-3022.0
merged	-3023.0
normal	-3024.0
reload	-3025.0
respon	-3026.0
stores	-3027.0
▁Cache	-3028.0
▁DeepS	-3029.0
▁Since	-3030.0
▁TORCH	-3031.0
▁apply	-3032.0
▁audio	-3033.0
▁calls	-3034.0
▁child	-3035.0
▁every	-3036.0
▁inner	-3037.0
▁level	-3038.0
▁paths	-3039.0
▁range	-3040.0
▁refer	-3041.0
▁these	-3042.0
▁usage	-3043.0
▁whose	-3044.0
Version	-3045.0
classes	-3046.0
cording	-3047.0
disable	-3048.0
getattr	-3049.0
manager	-3050.0
optimum	-3051.0
rappers	-3052.0
tracing	-3053.0
uppress	-3054.0
wrapper	-3055.0
▁Python	-3056.0
▁Unless	-3057.0
▁access	-3058.0
▁allows	-3059.0
▁appear	-3060.0
▁better	-3061.0
▁checks	-3062.0
▁common	-3063.0
▁ensure	-3064.0
▁global	-3065.0
▁issues	-3066.0
▁merged	-3067.0
▁remain	-3068.0
▁remote	-3069.0
▁single	-3070.0
▁states	-3071.0
Gathered	-3072.0
Infinity	-3073.0
assisted	-3074.0
external	-3075.0
location	-3076.0
override	-3077.0
werkzeug	-3078.0
▁constra	-3079.0
▁details	-3080.0
▁entries	-3081.0
▁improve	-3082.0
▁inherit	-3083.0
▁maximum	-3084.0
▁resolve	-3085.0
▁trigger	-3086.0
GatheredP	-3087.0
StateDict	-3088.0
community	-3089.0
subconfig	-3090.0
validated	-3091.0
▁absolute	-3092.0
▁location	-3093.0
▁manually	-3094.0
▁modifier	-3095.0
▁parallel	-3096.0
▁patterns	-3097.0
mismatched	-3098.0
transforms	-3099.0
▁DeepSpeed	-3100.0
▁correspon	-3101.0
▁functools	-3102.0
▁namespace	-3103.0
▁necessary	-3104.0
▁propagate	-3105.0
▁submodels	-3106.0
application	-3107.0
▁Parameters	-3108.0
▁multimodal	-3109.0
▁prediction	-3110.0
▁serialized	-3111.0
▁vocabulary	-3112.0
▁compilation	-3113.0
▁huggingface	-3114.0
▁serializable	-3115.0
▁instantiating	-3116.0
stributedConfig	-3117.0
GatheredParameters	-3118.0
PreTrainedTokenizerBase	-3119.0
)(	-3120.0
=_	-3121.0
Ca	-3122.0
EY	-3123.0
IE	-3124.0
TH	-3125.0
Ze	-3126.0
[_	-3127.0
](	-3128.0
_"	-3129.0
bf	-3130.0
fx	-3131.0
ki	-3132.0
ks	-3133.0
lt	-3134.0
rb	-3135.0
sm	-3136.0
tf	-3137.0
},	-3138.0
"]:	-3139.0
AIL	-3140.0
ART	-3141.0
App	-3142.0
Dao	-3143.0
ENT	-3144.0
KEY	-3145.0
LOW	-3146.0
MEN	-3147.0
SES	-3148.0
Str	-3149.0
["/	-3150.0
[:-	-3151.0
]):	-3152.0
ans	-3153.0
atr	-3154.0
aux	-3155.0
bar	-3156.0
etr	-3157.0
eze	-3158.0
gin	-3159.0
gma	-3160.0
ick	-3161.0
ily	-3162.0
lso	-3163.0
oot	-3164.0
pdf	-3165.0
raw	-3166.0
sep	-3167.0
sgi	-3168.0
std	-3169.0
tty	-3170.0
www	-3171.0
})"	-3172.0
}."	-3173.0
▁"-	-3174.0
▁As	-3175.0
▁Do	-3176.0
▁OF	-3177.0
▁On	-3178.0
▁Ze	-3179.0
▁`@	-3180.0
▁fa	-3181.0
▁fp	-3182.0
▁qu	-3183.0
▁sl	-3184.0
▁{_	-3185.0
▁|=	-3186.0
ATTN	-3187.0
Comp	-3188.0
ENDS	-3189.0
FALL	-3190.0
FAST	-3191.0
LASH	-3192.0
Name	-3193.0
YTES	-3194.0
]`):	-3195.0
atio	-3196.0
body	-3197.0
cent	-3198.0
flex	-3199.0
hell	-3200.0
iled	-3201.0
imax	-3202.0
iter	-3203.0
last	-3204.0
lose	-3205.0
mesh	-3206.0
midi	-3207.0
most	-3208.0
nalS	-3209.0
ones	-3210.0
pair	-3211.0
port	-3212.0
pout	-3213.0
prec	-3214.0
pull	-3215.0
resh	-3216.0
safe	-3217.0
soft	-3218.0
stem	-3219.0
take	-3220.0
tqdm	-3221.0
true	-3222.0
ular	-3223.0
vers	-3224.0
wsgi	-3225.0
▁CON	-3226.0
▁HQQ	-3227.0
▁Try	-3228.0
▁bos	-3229.0
▁com	-3230.0
▁dec	-3231.0
▁fil	-3232.0
▁got	-3233.0
▁law	-3234.0
▁msg	-3235.0
▁our	-3236.0
▁smp	-3237.0
▁way	-3238.0
▁zip	-3239.0
...)`	-3240.0
AILab	-3241.0
Param	-3242.0
[...,	-3243.0
akref	-3244.0
along	-3245.0
atrix	-3246.0
chunk	-3247.0
erred	-3248.0
flask	-3249.0
graph	-3250.0
ifier	-3251.0
laceh	-3252.0
limit	-3253.0
onfid	-3254.0
osite	-3255.0
prime	-3256.0
reate	-3257.0
rieve	-3258.0
stral	-3259.0
sumed	-3260.0
veral	-3261.0
▁Also	-3262.0
▁Bert	-3263.0
▁PEFT	-3264.0
▁SLOW	-3265.0
▁With	-3266.0
▁ZeRO	-3267.0
▁body	-3268.0
▁cuda	-3269.0
▁enum	-3270.0
▁help	-3271.0
▁pack	-3272.0
▁port	-3273.0
▁real	-3274.0
▁sent	-3275.0
▁uses	-3276.0
CONVER	-3277.0
Causal	-3278.0
Device	-3279.0
Method	-3280.0
PTIONS	-3281.0
backup	-3282.0
ceback	-3283.0
cessed	-3284.0
errors	-3285.0
ortcut	-3286.0
pandas	-3287.0
queeze	-3288.0
ropout	-3289.0
select	-3290.0
setter	-3291.0
ulated	-3292.0
uments	-3293.0
▁Heter	-3294.0
▁These	-3295.0
▁again	-3296.0
▁appro	-3297.0
▁bound	-3298.0
▁clear	-3299.0
▁colle	-3300.0
▁doing	-3301.0
▁fixed	-3302.0
▁fully	-3303.0
▁guide	-3304.0
▁incre	-3305.0
▁limit	-3306.0
▁logic	-3307.0
▁lower	-3308.0
▁newly	-3309.0
▁pairs	-3310.0
▁speed	-3311.0
▁wrong	-3312.0
AltCLIP	-3313.0
Environ	-3314.0
Invalid	-3315.0
Passing	-3316.0
SESSION	-3317.0
allowed	-3318.0
batched	-3319.0
cluding	-3320.0
element	-3321.0
eyError	-3322.0
handler	-3323.0
helpers	-3324.0
patches	-3325.0
prefill	-3326.0
present	-3327.0
related	-3328.0
▁Checks	-3329.0
▁Output	-3330.0
▁Placeh	-3331.0
▁adding	-3332.0
▁agreed	-3333.0
▁dtypes	-3334.0
▁expand	-3335.0
▁expect	-3336.0
▁future	-3337.0
▁header	-3338.0
▁marker	-3339.0
▁naming	-3340.0
▁please	-3341.0
▁stores	-3342.0
▁vision	-3343.0
FALLBACK	-3344.0
compiled	-3345.0
consumed	-3346.0
defaults	-3347.0
fallback	-3348.0
teardown	-3349.0
▁Request	-3350.0
▁Version	-3351.0
▁accepts	-3352.0
▁compute	-3353.0
▁extract	-3354.0
▁handled	-3355.0
▁ignored	-3356.0
▁keeping	-3357.0
▁patched	-3358.0
▁prevent	-3359.0
▁related	-3360.0
▁several	-3361.0
▁strings	-3362.0
▁trailer	-3363.0
▁updated	-3364.0
▁weakref	-3365.0
ATTENTION	-3366.0
Parameter	-3367.0
converter	-3368.0
generated	-3369.0
ification	-3370.0
nalServer	-3371.0
onfidence	-3372.0
sagemaker	-3373.0
subdomain	-3374.0
unflatten	-3375.0
▁Assisted	-3376.0
▁Defaults	-3377.0
▁Indirect	-3378.0
▁Specific	-3379.0
▁actually	-3380.0
▁internal	-3381.0
▁metadata	-3382.0
▁properly	-3383.0
▁property	-3384.0
▁software	-3385.0
CONVERTERS	-3386.0
NameObject	-3387.0
appcontext	-3388.0
applicable	-3389.0
extraction	-3390.0
processors	-3391.0
▁DebugInfo	-3392.0
▁TypeError	-3393.0
▁composite	-3394.0
▁depending	-3395.0
▁forwarded	-3396.0
▁implement	-3397.0
▁important	-3398.0
▁inference	-3399.0
▁normalize	-3400.0
▁offloaded	-3401.0
▁resulting	-3402.0
▁timedelta	-3403.0
▁variables	-3404.0
DecodeError	-3405.0
terogeneous	-3406.0
transformed	-3407.0
▁TensorType	-3408.0
▁conditions	-3409.0
▁indicating	-3410.0
▁properties	-3411.0
▁validation	-3412.0
▁Placeholder	-3413.0
▁collections	-3414.0
▁constraints	-3415.0
▁potentially	-3416.0
TokenizerFast	-3417.0
▁initializing	-3418.0
▁requirements	-3419.0
nalServerError	-3420.0
▁Heterogeneous	-3421.0
▁LoadStateDict	-3422.0
▁compatibility	-3423.0
▁continuations	-3424.0
▁documentation	-3425.0
implementations	-3426.0
▁IndirectObject	-3427.0
▁initialization	-3428.0
DictionaryObject	-3429.0
▁transformations	-3430.0
▁QuantizationMethod	-3431.0
▁HeterogeneousConfigMixin	-3432.0
"\	-3433.0
']	-3434.0
./	-3435.0
:]	-3436.0
>"	-3437.0
AU	-3438.0
Bu	-3439.0
CT	-3440.0
GE	-3441.0
OK	-3442.0
PY	-3443.0
['	-3444.0
[`	-3445.0
`'	-3446.0
cv	-3447.0
ev	-3448.0
fs	-3449.0
iB	-3450.0
nv	-3451.0
xx	-3452.0
xy	-3453.0
"))	-3454.0
")]	-3455.0
"],	-3456.0
AFE	-3457.0
ANT	-3458.0
APP	-3459.0
ATE	-3460.0
IZE	-3461.0
ORE	-3462.0
OST	-3463.0
PER	-3464.0
Ref	-3465.0
Res	-3466.0
UDA	-3467.0
ULT	-3468.0
Vec	-3469.0
[`~	-3470.0
]],	-3471.0
]]]	-3472.0
`),	-3473.0
`]:	-3474.0
ask	-3475.0
bin	-3476.0
cle	-3477.0
cup	-3478.0
dea	-3479.0
def	-3480.0
dpa	-3481.0
dup	-3482.0
ece	-3483.0
eep	-3484.0
ici	-3485.0
ify	-3486.0
igu	-3487.0
ili	-3488.0
ipy	-3489.0
ltk	-3490.0
mlp	-3491.0
mlu	-3492.0
mon	-3493.0
pth	-3494.0
ptr	-3495.0
rol	-3496.0
sjo	-3497.0
sky	-3498.0
utf	-3499.0
var	-3500.0
▁"(	-3501.0
▁"\	-3502.0
▁((	-3503.0
▁-=	-3504.0
▁._	-3505.0
▁:,	-3506.0
▁Ch	-3507.0
▁FU	-3508.0
▁Hf	-3509.0
▁LI	-3510.0
▁PR	-3511.0
▁fn	-3512.0
▁pe	-3513.0
▁sp	-3514.0
▁}"	-3515.0
▁},	-3516.0
"`):	-3517.0
()).	-3518.0
()):	-3519.0
COOK	-3520.0
Conv	-3521.0
Data	-3522.0
ENSE	-3523.0
NotF	-3524.0
REQU	-3525.0
ROOT	-3526.0
Redi	-3527.0
SIZE	-3528.0
TRAC	-3529.0
aged	-3530.0
ares	-3531.0
audi	-3532.0
blem	-3533.0
flas	-3534.0
igit	-3535.0
ilar	-3536.0
ions	-3537.0
isit	-3538.0
ject	-3539.0
joao	-3540.0
more	-3541.0
mper	-3542.0
mpts	-3543.0
nltk	-3544.0
okup	-3545.0
omet	-3546.0
pend	-3547.0
pers	-3548.0
plit	-3549.0
pper	-3550.0
rray	-3551.0
sure	-3552.0
ters	-3553.0
ured	-3554.0
will	-3555.0
your	-3556.0
▁:].	-3557.0
▁ANY	-3558.0
▁All	-3559.0
▁CLI	-3560.0
▁CPU	-3561.0
▁EOS	-3562.0
▁Let	-3563.0
▁THE	-3564.0
▁Tra	-3565.0
▁`./	-3566.0
▁bad	-3567.0
▁bin	-3568.0
▁bit	-3569.0
▁bro	-3570.0
▁buf	-3571.0
▁mtp	-3572.0
▁opt	-3573.0
▁ord	-3574.0
▁pdf	-3575.0
▁pra	-3576.0
▁pub	-3577.0
▁put	-3578.0
▁ski	-3579.0
▁val	-3580.0
Check	-3581.0
Could	-3582.0
DISTR	-3583.0
Flask	-3584.0
Image	-3585.0
NAMES	-3586.0
Recor	-3587.0
STORE	-3588.0
activ	-3589.0
aging	-3590.0
aries	-3591.0
asets	-3592.0
chole	-3593.0
cover	-3594.0
cross	-3595.0
enses	-3596.0
entia	-3597.0
erate	-3598.0
erved	-3599.0
exist	-3600.0
hosts	-3601.0
ified	-3602.0
lator	-3603.0
oring	-3604.0
pairs	-3605.0
piece	-3606.0
ranch	-3607.0
ratio	-3608.0
stand	-3609.0
tesIO	-3610.0
train	-3611.0
udach	-3612.0
ulate	-3613.0
verse	-3614.0
wards	-3615.0
wever	-3616.0
where	-3617.0
which	-3618.0
▁([`~	-3619.0
▁Auto	-3620.0
▁BACK	-3621.0
▁CUDA	-3622.0
▁List	-3623.0
▁Make	-3624.0
▁PACK	-3625.0
▁Read	-3626.0
▁SAFE	-3627.0
▁care	-3628.0
▁dead	-3629.0
▁done	-3630.0
▁exec	-3631.0
▁fall	-3632.0
▁hard	-3633.0
▁hook	-3634.0
▁idea	-3635.0
▁lazy	-3636.0
▁live	-3637.0
▁mult	-3638.0
▁page	-3639.0
▁sdpa	-3640.0
▁tell	-3641.0
▁thus	-3642.0
▁wrap	-3643.0
APPLIC	-3644.0
Albert	-3645.0
COOKIE	-3646.0
Cannot	-3647.0
Client	-3648.0
KERNEL	-3649.0
Please	-3650.0
Vision	-3651.0
aching	-3652.0
active	-3653.0
apache	-3654.0
atform	-3655.0
bluepr	-3656.0
caling	-3657.0
client	-3658.0
cupied	-3659.0
detect	-3660.0
getenv	-3661.0
handle	-3662.0
iguous	-3663.0
iliary	-3664.0
imilar	-3665.0
isited	-3666.0
istent	-3667.0
logger	-3668.0
nested	-3669.0
objStm	-3670.0
outing	-3671.0
parent	-3672.0
repeat	-3673.0
ridden	-3674.0
sjoint	-3675.0
suffix	-3676.0
termin	-3677.0
urther	-3678.0
ussion	-3679.0
▁FLASH	-3680.0
▁Final	-3681.0
▁Gener	-3682.0
▁Llama	-3683.0
▁Model	-3684.0
▁Torch	-3685.0
▁accum	-3686.0
▁alias	-3687.0
▁below	-3688.0
▁chain	-3689.0
▁cover	-3690.0
▁dicts	-3691.0
▁eager	-3692.0
▁going	-3693.0
▁hence	-3694.0
▁known	-3695.0
▁kwarg	-3696.0
▁loads	-3697.0
▁maybe	-3698.0
▁numpy	-3699.0
▁often	-3700.0
▁reset	-3701.0
▁right	-3702.0
▁somet	-3703.0
▁split	-3704.0
▁users	-3705.0
IBUTION	-3706.0
LICENSE	-3707.0
TypeVar	-3708.0
ampling	-3709.0
atasets	-3710.0
defined	-3711.0
handled	-3712.0
ipython	-3713.0
pattern	-3714.0
rebuild	-3715.0
resized	-3716.0
scatter	-3717.0
softmax	-3718.0
▁Custom	-3719.0
▁Static	-3720.0
▁assume	-3721.0
▁binary	-3722.0
▁client	-3723.0
▁failed	-3724.0
▁floats	-3725.0
▁fusion	-3726.0
▁instru	-3727.0
▁modify	-3728.0
▁option	-3729.0
▁pragma	-3730.0
▁public	-3731.0
▁rather	-3732.0
▁revert	-3733.0
▁unwrap	-3734.0
▁window	-3735.0
▁writer	-3736.0
CausalLM	-3737.0
Detected	-3738.0
NotFound	-3739.0
Recorder	-3740.0
Redirect	-3741.0
Streamer	-3742.0
blocking	-3743.0
cholesky	-3744.0
compiler	-3745.0
deepcopy	-3746.0
expanded	-3747.0
facebook	-3748.0
features	-3749.0
floating	-3750.0
licenses	-3751.0
patterns	-3752.0
quantize	-3753.0
recovery	-3754.0
sentence	-3755.0
trailers	-3756.0
variable	-3757.0
▁BytesIO	-3758.0
▁Convert	-3759.0
▁Current	-3760.0
▁HfQuant	-3761.0
▁KERNELS	-3762.0
▁PACKAGE	-3763.0
▁catalog	-3764.0
▁collect	-3765.0
▁content	-3766.0
▁control	-3767.0
▁exclude	-3768.0
▁finally	-3769.0
▁general	-3770.0
▁padding	-3771.0
▁passing	-3772.0
▁penalty	-3773.0
▁results	-3774.0
▁tracing	-3775.0
▁unknown	-3776.0
▁wrapper	-3777.0
duplicate	-3778.0
extConfig	-3779.0
mperature	-3780.0
namespace	-3781.0
selective	-3782.0
submodels	-3783.0
▁BACKENDS	-3784.0
▁Examples	-3785.0
▁compiled	-3786.0
▁deadlock	-3787.0
▁floating	-3788.0
▁handling	-3789.0
▁inherits	-3790.0
▁modified	-3791.0
▁occupied	-3792.0
▁overwrit	-3793.0
Comparison	-3794.0
WrappedFun	-3795.0
annotation	-3796.0
isinstance	-3797.0
persistent	-3798.0
rrayObject	-3799.0
serialized	-3800.0
tokenizers	-3801.0
torchaudio	-3802.0
transition	-3803.0
validation	-3804.0
▁Copyright	-3805.0
▁HQQLinear	-3806.0
▁auxiliary	-3807.0
▁behaviour	-3808.0
▁contained	-3809.0
▁enumerate	-3810.0
▁heuristic	-3811.0
▁identical	-3812.0
▁including	-3813.0
▁instances	-3814.0
▁lowercase	-3815.0
▁overwrite	-3816.0
▁performed	-3817.0
▁remaining	-3818.0
APPLICATION	-3819.0
accelerator	-3820.0
▁additional	-3821.0
▁annotation	-3822.0
▁exceptions	-3823.0
▁increasing	-3824.0
▁positional	-3825.0
▁underlying	-3826.0
▁whitespace	-3827.0
DISTRIBUTION	-3828.0
GenerateBeam	-3829.0
VisionConfig	-3830.0
getattribute	-3831.0
tokenization	-3832.0
▁HfQuantizer	-3833.0
▁Instantiate	-3834.0
▁accumulated	-3835.0
NotFoundError	-3836.0
sentencepiece	-3837.0
▁bitsandbytes	-3838.0
▁instructions	-3839.0
▁probabilities	-3840.0
▁OutputRecorder	-3841.0
DistributedConfig	-3842.0
InternalServerError	-3843.0
LogitsProcessorList	-3844.0
▁AttentionInterface	-3845.0
▁AssistedCandidateGenerator	-3846.0
)]	-3847.0
-)	-3848.0
.*	-3849.0
/<	-3850.0
:,	-3851.0
>=	-3852.0
AM	-3853.0
Ad	-3854.0
BI	-3855.0
CC	-3856.0
FI	-3857.0
ID	-3858.0
IP	-3859.0
LP	-3860.0
La	-3861.0
Lo	-3862.0
SI	-3863.0
TK	-3864.0
VI	-3865.0
XX	-3866.0
]+	-3867.0
`-	-3868.0
ba	-3869.0
oo	-3870.0
qq	-3871.0
sa	-3872.0
uc	-3873.0
▁—	-3874.0
"({	-3875.0
"`'	-3876.0
"`{	-3877.0
(",	-3878.0
/`.	-3879.0
AND	-3880.0
ASE	-3881.0
EAT	-3882.0
EMP	-3883.0
ESS	-3884.0
GEN	-3885.0
ISS	-3886.0
LAY	-3887.0
LIN	-3888.0
Man	-3889.0
OWE	-3890.0
PDF	-3891.0
Par	-3892.0
RET	-3893.0
SET	-3894.0
TRA	-3895.0
TRU	-3896.0
TYP	-3897.0
XLA	-3898.0
]]:	-3899.0
abc	-3900.0
bos	-3901.0
buf	-3902.0
col	-3903.0
cud	-3904.0
dlp	-3905.0
dot	-3906.0
eed	-3907.0
eff	-3908.0
est	-3909.0
fai	-3910.0
fns	-3911.0
gor	-3912.0
hte	-3913.0
ire	-3914.0
isd	-3915.0
lop	-3916.0
mup	-3917.0
rib	-3918.0
sho	-3919.0
tok	-3920.0
ule	-3921.0
una	-3922.0
xis	-3923.0
xpu	-3924.0
}),	-3925.0
}`.	-3926.0
▁*,	-3927.0
▁</	-3928.0
▁<=	-3929.0
▁Ac	-3930.0
▁Ho	-3931.0
▁ID	-3932.0
▁Mo	-3933.0
▁Sh	-3934.0
▁Us	-3935.0
▁WE	-3936.0
▁_,	-3937.0
▁ke	-3938.0
▁mp	-3939.0
▁pa	-3940.0
))`,	-3941.0
).__	-3942.0
ARCH	-3943.0
ARTX	-3944.0
ASIS	-3945.0
ATIC	-3946.0
Acro	-3947.0
Buil	-3948.0
FILE	-3949.0
Form	-3950.0
HTTP	-3951.0
Iter	-3952.0
JSON	-3953.0
MENT	-3954.0
Mesh	-3955.0
Norm	-3956.0
OWED	-3957.0
QUAL	-3958.0
RECO	-3959.0
STED	-3960.0
VERY	-3961.0
XRef	-3962.0
amps	-3963.0
ands	-3964.0
arse	-3965.0
brid	-3966.0
capt	-3967.0
card	-3968.0
crop	-3969.0
disc	-3970.0
done	-3971.0
ency	-3972.0
hing	-3973.0
ider	-3974.0
ithm	-3975.0
lers	-3976.0
mast	-3977.0
mmed	-3978.0
none	-3979.0
null	-3980.0
nvml	-3981.0
oids	-3982.0
oman	-3983.0
osed	-3984.0
plus	-3985.0
post	-3986.0
reed	-3987.0
rich	-3988.0
rosa	-3989.0
skip	-3990.0
sser	-3991.0
tree	-3992.0
uint	-3993.0
uses	-3994.0
▁Add	-3995.0
▁But	-3996.0
▁GPT	-3997.0
▁Git	-3998.0
▁IMP	-3999.0
▁MTP	-4000.0
▁Tie	-4001.0
▁Wav	-4002.0
▁``(	-4003.0
▁`{'	-4004.0
▁bug	-4005.0
▁cho	-4006.0
▁dup	-4007.0
▁eng	-4008.0
▁ent	-4009.0
▁foo	-4010.0
▁lon	-4011.0
▁pop	-4012.0
▁pus	-4013.0
▁req	-4014.0
▁sum	-4015.0
▁syn	-4016.0
▁too	-4017.0
▁ver	-4018.0
▁{})	-4019.0
("_",	-4020.0
BYTES	-4021.0
EXPER	-4022.0
Gemma	-4023.0
IMPLE	-4024.0
LAYER	-4025.0
LINES	-4026.0
Manag	-4027.0
Paths	-4028.0
TYPES	-4029.0
ToHub	-4030.0
Using	-4031.0
acter	-4032.0
alias	-4033.0
aling	-4034.0
aller	-4035.0
andle	-4036.0
appen	-4037.0
array	-4038.0
aving	-4039.0
based	-4040.0
books	-4041.0
cased	-4042.0
codec	-4043.0
dumps	-4044.0
faiss	-4045.0
false	-4046.0
final	-4047.0
ftMax	-4048.0
hable	-4049.0
htein	-4050.0
itive	-4051.0
ivari	-4052.0
leted	-4053.0
lines	-4054.0
ninja	-4055.0
numpy	-4056.0
ommon	-4057.0
otary	-4058.0
riton	-4059.0
shell	-4060.0
slice	-4061.0
stack	-4062.0
thing	-4063.0
tower	-4064.0
udget	-4065.0
users	-4066.0
velop	-4067.0
vided	-4068.0
▁"-")	-4069.0
▁FEAT	-4070.0
▁File	-4071.0
▁Open	-4072.0
▁Pass	-4073.0
▁Root	-4074.0
▁Save	-4075.0
▁They	-4076.0
▁User	-4077.0
▁acro	-4078.0
▁axis	-4079.0
▁bias	-4080.0
▁capt	-4081.0
▁char	-4082.0
▁equi	-4083.0
▁fill	-4084.0
▁http	-4085.0
▁inte	-4086.0
▁item	-4087.0
▁kept	-4088.0
▁long	-4089.0
▁move	-4090.0
▁norm	-4091.0
▁pick	-4092.0
▁post	-4093.0
▁prec	-4094.0
▁pull	-4095.0
▁rece	-4096.0
▁redu	-4097.0
▁send	-4098.0
▁show	-4099.0
▁supp	-4100.0
▁tail	-4101.0
▁task	-4102.0
▁util	-4103.0
(".")[	-4104.0
ATIONS	-4105.0
Create	-4106.0
EXTRAC	-4107.0
Kernel	-4108.0
Result	-4109.0
STARTX	-4110.0
Tokens	-4111.0
Unable	-4112.0
VALUES	-4113.0
accept	-4114.0
bfloat	-4115.0
called	-4116.0
destin	-4117.0
dotenv	-4118.0
encode	-4119.0
ending	-4120.0
factor	-4121.0
fields	-4122.0
hisper	-4123.0
hybrid	-4124.0
idance	-4125.0
ilable	-4126.0
isfile	-4127.0
linear	-4128.0
master	-4129.0
multip	-4130.0
pretty	-4131.0
psilon	-4132.0
record	-4133.0
report	-4134.0
ressed	-4135.0
ribing	-4136.0
semble	-4137.0
shared	-4138.0
ssages	-4139.0
stamps	-4140.0
status	-4141.0
sudach	-4142.0
tesser	-4143.0
thresh	-4144.0
typing	-4145.0
uroman	-4146.0
valent	-4147.0
▁Apply	-4148.0
▁BASIS	-4149.0
▁First	-4150.0
▁Gaudi	-4151.0
▁Gemma	-4152.0
▁Start	-4153.0
▁There	-4154.0
▁algor	-4155.0
▁along	-4156.0
▁built	-4157.0
▁depth	-4158.0
▁flags	-4159.0
▁items	-4160.0
▁lists	-4161.0
▁moved	-4162.0
▁optim	-4163.0
▁owner	-4164.0
▁paper	-4165.0
▁patch	-4166.0
▁prior	-4167.0
▁probs	-4168.0
▁produ	-4169.0
▁seems	-4170.0
▁separ	-4171.0
▁smart	-4172.0
▁space	-4173.0
▁steps	-4174.0
▁tying	-4175.0
▁whole	-4176.0
Builder	-4177.0
Calling	-4178.0
ERATION	-4179.0
EXPERTS	-4180.0
Penalty	-4181.0
globals	-4182.0
ication	-4183.0
isdigit	-4184.0
located	-4185.0
minimax	-4186.0
partial	-4187.0
perform	-4188.0
pointer	-4189.0
reorder	-4190.0
runtime	-4191.0
scaling	-4192.0
ssentia	-4193.0
started	-4194.0
uations	-4195.0
uncased	-4196.0
verride	-4197.0
▁Config	-4198.0
▁Detect	-4199.0
▁Direct	-4200.0
▁GitHub	-4201.0
▁Search	-4202.0
▁across	-4203.0
▁adjust	-4204.0
▁affect	-4205.0
▁almost	-4206.0
▁avoids	-4207.0
▁branch	-4208.0
▁descri	-4209.0
▁effect	-4210.0
▁equals	-4211.0
▁export	-4212.0
▁filter	-4213.0
▁gather	-4214.0
▁happen	-4215.0
▁labels	-4216.0
▁lambda	-4217.0
▁linear	-4218.0
▁longer	-4219.0
▁opened	-4220.0
▁pushed	-4221.0
▁recent	-4222.0
▁scheme	-4223.0
▁second	-4224.0
▁shapes	-4225.0
▁starts	-4226.0
▁tables	-4227.0
▁though	-4228.0
▁trying	-4229.0
▁verify	-4230.0
AcroForm	-4231.0
Managers	-4232.0
RECOVERY	-4233.0
enshtein	-4234.0
hostname	-4235.0
ivariate	-4236.0
language	-4237.0
quential	-4238.0
register	-4239.0
relative	-4240.0
resource	-4241.0
shortcut	-4242.0
streamer	-4243.0
subclass	-4244.0
suppress	-4245.0
ushToHub	-4246.0
wrappers	-4247.0
▁Because	-4248.0
▁Context	-4249.0
▁FEATURE	-4250.0
▁However	-4251.0
▁Hugging	-4252.0
▁Setting	-4253.0
▁SoftMax	-4254.0
▁WEIGHTS	-4255.0
▁anymore	-4256.0
▁archive	-4257.0
▁attempt	-4258.0
▁batches	-4259.0
▁buffers	-4260.0
▁caching	-4261.0
▁compare	-4262.0
▁definit	-4263.0
▁develop	-4264.0
▁display	-4265.0
▁explain	-4266.0
▁flatten	-4267.0
▁further	-4268.0
▁leading	-4269.0
▁minimum	-4270.0
▁partial	-4271.0
▁reading	-4272.0
▁recurse	-4273.0
▁shouldn	-4274.0
▁sliding	-4275.0
▁smaller	-4276.0
▁testing	-4277.0
▁visited	-4278.0
Converter	-4279.0
EXTRACTOR	-4280.0
IMPLEMENT	-4281.0
STARTXREF	-4282.0
arguments	-4283.0
extension	-4284.0
frozenset	-4285.0
ileConfig	-4286.0
installed	-4287.0
tesseract	-4288.0
threshold	-4289.0
unsqueeze	-4290.0
▁KeyError	-4291.0
▁Sequence	-4292.0
▁Werkzeug	-4293.0
▁acroform	-4294.0
▁adapters	-4295.0
▁allocate	-4296.0
▁anything	-4297.0
▁backward	-4298.0
▁defining	-4299.0
▁dependen	-4300.0
▁detected	-4301.0
▁disjoint	-4302.0
▁handlers	-4303.0
▁imported	-4304.0
▁operator	-4305.0
▁resizing	-4306.0
▁retrieve	-4307.0
▁sampling	-4308.0
▁sentence	-4309.0
▁subclass	-4310.0
▁training	-4311.0
BeamOutput	-4312.0
blueprints	-4313.0
confidence	-4314.0
setdefault	-4315.0
strategies	-4316.0
timestamps	-4317.0
translator	-4318.0
▁according	-4319.0
▁algorithm	-4320.0
▁backwards	-4321.0
▁completed	-4322.0
▁converted	-4323.0
▁detectron	-4324.0
▁encrypted	-4325.0
▁interface	-4326.0
▁packaging	-4327.0
▁precision	-4328.0
▁reloading	-4329.0
▁traceback	-4330.0
▁unchanged	-4331.0
▁unhandled	-4332.0
Environment	-4333.0
ResultPaths	-4334.0
atchFeature	-4335.0
initializer	-4336.0
performance	-4337.0
terministic	-4338.0
ynamicCache	-4339.0
▁BertConfig	-4340.0
▁Initialize	-4341.0
▁acceptance	-4342.0
▁afterwards	-4343.0
▁describing	-4344.0
▁equivalent	-4345.0
▁forwarding	-4346.0
▁functional	-4347.0
▁generating	-4348.0
▁importable	-4349.0
▁processing	-4350.0
▁specifying	-4351.0
▁stacklevel	-4352.0
▁strategies	-4353.0
▁subclasses	-4354.0
▁subconfigs	-4355.0
▁submodules	-4356.0
BaseStreamer	-4357.0
DecoderLayer	-4358.0
destinations	-4359.0
▁StaticCache	-4360.0
▁deadlocking	-4361.0
▁development	-4362.0
▁instantiate	-4363.0
▁transformed	-4364.0
heterogeneous	-4365.0
ushToHubMixin	-4366.0
▁multivariate	-4367.0
▁quantization	-4368.0
classification	-4369.0
▁corresponding	-4370.0
IMPLEMENTATIONS	-4371.0
JSONDecodeError	-4372.0
yourapplication	-4373.0
▁ContextManagers	-4374.0
▁WSGIEnvironment	-4375.0
▁LoadStateDictInfo	-4376.0
▁InitialResultPaths	-4377.0
AutoFeatureExtractor	-4378.0
LengthLogitsProcessor	-4379.0
TokenCandidateGenerator	-4380.0
GenerateDecoderOnlyOutput	-4381.0
'.	-4382.0
)"	-4383.0
)[	-4384.0
*_	-4385.0
.{	-4386.0
='	-4387.0
At	-4388.0
By	-4389.0
GU	-4390.0
Gr	-4391.0
IT	-4392.0
MM	-4393.0
MO	-4394.0
Na	-4395.0
No	-4396.0
OL	-4397.0
PE	-4398.0
SM	-4399.0
Sh	-4400.0
Th	-4401.0
[(	-4402.0
\.	-4403.0
_,	-4404.0
aa	-4405.0
ef	-4406.0
eq	-4407.0
fe	-4408.0
fh	-4409.0
gi	-4410.0
ln	-4411.0
md	-4412.0
rt	-4413.0
vo	-4414.0
yt	-4415.0
}\	-4416.0
▁\	-4417.0
▁👉	-4418.0
!")	-4419.0
"":	-4420.0
");	-4421.0
$")	-4422.0
')*	-4423.0
("=	-4424.0
("`	-4425.0
)()	-4426.0
)."	-4427.0
:`/	-4428.0
="{	-4429.0
ARR	-4430.0
BLE	-4431.0
Cli	-4432.0
DPA	-4433.0
EST	-4434.0
FOR	-4435.0
GPT	-4436.0
GUF	-4437.0
Get	-4438.0
IES	-4439.0
IRE	-4440.0
KEN	-4441.0
LAT	-4442.0
LMs	-4443.0
LTK	-4444.0
Lev	-4445.0
Lic	-4446.0
MPS	-4447.0
NGr	-4448.0
NaN	-4449.0
OSS	-4450.0
PAR	-4451.0
PRO	-4452.0
PUs	-4453.0
Pre	-4454.0
Run	-4455.0
SEC	-4456.0
UCT	-4457.0
]`)	-4458.0
__"	-4459.0
ale	-4460.0
alf	-4461.0
arn	-4462.0
but	-4463.0
cay	-4464.0
chn	-4465.0
dia	-4466.0
diz	-4467.0
eof	-4468.0
fil	-4469.0
gal	-4470.0
ges	-4471.0
got	-4472.0
ice	-4473.0
ima	-4474.0
ink	-4475.0
inv	-4476.0
iny	-4477.0
ish	-4478.0
kpt	-4479.0
may	-4480.0
mod	-4481.0
moe	-4482.0
msg	-4483.0
nan	-4484.0
nlp	-4485.0
nvi	-4486.0
ons	-4487.0
ops	-4488.0
ote	-4489.0
pil	-4490.0
pkg	-4491.0
ren	-4492.0
sew	-4493.0
trs	-4494.0
tun	-4495.0
vec	-4496.0
vid	-4497.0
wav	-4498.0
}'.	-4499.0
▁""	-4500.0
▁".	-4501.0
▁"{	-4502.0
▁%%	-4503.0
▁&=	-4504.0
▁'\	-4505.0
▁(#	-4506.0
▁AI	-4507.0
▁Ap	-4508.0
▁At	-4509.0
▁Bu	-4510.0
▁DE	-4511.0
▁HF	-4512.0
▁IN	-4513.0
▁LM	-4514.0
▁PP	-4515.0
▁cl	-4516.0
▁cy	-4517.0
▁fb	-4518.0
▁ft	-4519.0
▁mi	-4520.0
▁np	-4521.0
",),	-4522.0
("__	-4523.0
('./	-4524.0
()))	-4525.0
(),)	-4526.0
()])	-4527.0
()`.	-4528.0
)``,	-4529.0
/')*	-4530.0
AUTO	-4531.0
BILI	-4532.0
Byte	-4533.0
CCEL	-4534.0
DEFA	-4535.0
EXCE	-4536.0
FORM	-4537.0
LOAD	-4538.0
Lazy	-4539.0
MAGE	-4540.0
PREF	-4541.0
Prev	-4542.0
Spec	-4543.0
TEMP	-4544.0
THAN	-4545.0
TRAP	-4546.0
TYPE	-4547.0
[[],	-4548.0
__("	-4549.0
adam	-4550.0
akes	-4551.0
aybe	-4552.0
bitr	-4553.0
cing	-4554.0
clar	-4555.0
come	-4556.0
conv	-4557.0
core	-4558.0
cuto	-4559.0
dern	-4560.0
dist	-4561.0
does	-4562.0
efit	-4563.0
erge	-4564.0
erve	-4565.0
eval	-4566.0
exec	-4567.0
fact	-4568.0
feas	-4569.0
fine	-4570.0
freq	-4571.0
gram	-4572.0
iger	-4573.0
imes	-4574.0
imit	-4575.0
ings	-4576.0
inux	-4577.0
ired	-4578.0
isab	-4579.0
ives	-4580.0
lean	-4581.0
lnet	-4582.0
many	-4583.0
mbol	-4584.0
mine	-4585.0
mypy	-4586.0
norm	-4587.0
note	-4588.0
onus	-4589.0
pack	-4590.0
page	-4591.0
pyth	-4592.0
rame	-4593.0
rand	-4594.0
remo	-4595.0
ript	-4596.0
rodu	-4597.0
rule	-4598.0
rune	-4599.0
simp	-4600.0
timm	-4601.0
tiny	-4602.0
uted	-4603.0
utes	-4604.0
▁"`.	-4605.0
▁(),	-4606.0
▁(={	-4607.0
▁Don	-4608.0
▁GiB	-4609.0
▁MPS	-4610.0
▁Map	-4611.0
▁Num	-4612.0
▁Rai	-4613.0
▁Ret	-4614.0
▁SPE	-4615.0
▁Str	-4616.0
▁USE	-4617.0
▁``'	-4618.0
▁amb	-4619.0
▁ben	-4620.0
▁big	-4621.0
▁cap	-4622.0
▁cpu	-4623.0
▁cud	-4624.0
▁des	-4625.0
▁dir	-4626.0
▁eff	-4627.0
▁gpu	-4628.0
▁hol	-4629.0
▁isn	-4630.0
▁jit	-4631.0
▁mod	-4632.0
▁nor	-4633.0
▁pur	-4634.0
▁won	-4635.0
Class	-4636.0
EMPTY	-4637.0
EQUAL	-4638.0
ERATE	-4639.0
Flash	-4640.0
Fully	-4641.0
IZERS	-4642.0
LATES	-4643.0
Multi	-4644.0
NGram	-4645.0
Trans	-4646.0
VALUE	-4647.0
aking	-4648.0
alloc	-4649.0
alone	-4650.0
andar	-4651.0
arant	-4652.0
ategy	-4653.0
chron	-4654.0
close	-4655.0
comes	-4656.0
datac	-4657.0
dized	-4658.0
empty	-4659.0
ensed	-4660.0
finfo	-4661.0
funcs	-4662.0
gress	-4663.0
ising	-4664.0
itize	-4665.0
masks	-4666.0
maybe	-4667.0
minor	-4668.0
mmetr	-4669.0
nally	-4670.0
orter	-4671.0
osing	-4672.0
pical	-4673.0
place	-4674.0
pread	-4675.0
reedy	-4676.0
round	-4677.0
scale	-4678.0
score	-4679.0
smart	-4680.0
stead	-4681.0
thunk	-4682.0
tobuf	-4683.0
union	-4684.0
unked	-4685.0
wered	-4686.0
words	-4687.0
world	-4688.0
wraps	-4689.0
ystem	-4690.0
▁Both	-4691.0
▁FULL	-4692.0
▁Face	-4693.0
▁Find	-4694.0
▁Form	-4695.0
▁GGUF	-4696.0
▁Head	-4697.0
▁Iter	-4698.0
▁Keep	-4699.0
▁LOSS	-4700.0
▁MISS	-4701.0
▁NLTK	-4702.0
▁SDPA	-4703.0
▁Self	-4704.0
▁TPUs	-4705.0
▁Then	-4706.0
▁URLs	-4707.0
▁WARR	-4708.0
▁bund	-4709.0
▁card	-4710.0
▁ckpt	-4711.0
▁comb	-4712.0
▁come	-4713.0
▁cond	-4714.0
▁core	-4715.0
▁down	-4716.0
▁ever	-4717.0
▁fast	-4718.0
▁flat	-4719.0
▁free	-4720.0
▁high	-4721.0
▁hint	-4722.0
▁link	-4723.0
▁lose	-4724.0
▁made	-4725.0
▁many	-4726.0
▁maps	-4727.0
▁memo	-4728.0
▁mism	-4729.0
▁peft	-4730.0
▁perm	-4731.0
▁pres	-4732.0
▁ptrs	-4733.0
▁rank	-4734.0
▁rope	-4735.0
▁rule	-4736.0
▁scan	-4737.0
▁tear	-4738.0
▁tqdm	-4739.0
▁true	-4740.0
▁trun	-4741.0
▁vect	-4742.0
▁word	-4743.0
▁{}).	-4744.0
(...)`	-4745.0
=...)`	-4746.0
ANTIES	-4747.0
AlignT	-4748.0
BILITY	-4749.0
CliRun	-4750.0
Ensure	-4751.0
Fields	-4752.0
RELOAD	-4753.0
Repeat	-4754.0
SEARCH	-4755.0
STATIC	-4756.0
STRUCT	-4757.0
String	-4758.0
Update	-4759.0
aclass	-4760.0
adcast	-4761.0
anging	-4762.0
assign	-4763.0
budget	-4764.0
caches	-4765.0
causal	-4766.0
constr	-4767.0
contin	-4768.0
cutoff	-4769.0
cython	-4770.0
dynamo	-4771.0
effort	-4772.0
erform	-4773.0
erring	-4774.0
ertain	-4775.0
ertion	-4776.0
exists	-4777.0
gether	-4778.0
icient	-4779.0
icular	-4780.0
images	-4781.0
lambda	-4782.0
loader	-4783.0
lookup	-4784.0
mapped	-4785.0
marker	-4786.0
matrix	-4787.0
needed	-4788.0
nvidia	-4789.0
openai	-4790.0
optuna	-4791.0
ources	-4792.0
outine	-4793.0
probab	-4794.0
pyfile	-4795.0
pytest	-4796.0
python	-4797.0
server	-4798.0
should	-4799.0
simple	-4800.0
speech	-4801.0
synced	-4802.0
ternal	-4803.0
tolist	-4804.0
triton	-4805.0
tuning	-4806.0
utlass	-4807.0
window	-4808.0
ything	-4809.0
▁ACCEL	-4810.0
▁Backw	-4811.0
▁Build	-4812.0
▁Clear	-4813.0
▁Deter	-4814.0
▁Early	-4815.0
▁Limit	-4816.0
▁Maybe	-4817.0
▁Stage	-4818.0
▁activ	-4819.0
▁annot	-4820.0
▁async	-4821.0
▁begin	-4822.0
▁catch	-4823.0
▁comes	-4824.0
▁cycle	-4825.0
▁decla	-4826.0
▁dummy	-4827.0
▁errno	-4828.0
▁exact	-4829.0
▁exper	-4830.0
▁flask	-4831.0
▁group	-4832.0
▁image	-4833.0
▁infer	-4834.0
▁inits	-4835.0
▁keeps	-4836.0
▁least	-4837.0
▁lives	-4838.0
▁looks	-4839.0
▁mamba	-4840.0
▁manip	-4841.0
▁mixin	-4842.0
▁paged	-4843.0
▁parse	-4844.0
▁place	-4845.0
▁query	-4846.0
▁regex	-4847.0
▁route	-4848.0
▁stage	-4849.0
▁subse	-4850.0
▁techn	-4851.0
▁throw	-4852.0
▁track	-4853.0
▁world	-4854.0
Catalog	-4855.0
DEFAULT	-4856.0
DataPar	-4857.0
FullySh	-4858.0
IPython	-4859.0
KERNELS	-4860.0
License	-4861.0
PYTORCH	-4862.0
REQUEST	-4863.0
Routing	-4864.0
ashable	-4865.0
because	-4866.0
bitrary	-4867.0
comment	-4868.0
dtensor	-4869.0
epsilon	-4870.0
explain	-4871.0
fastapi	-4872.0
flashed	-4873.0
generic	-4874.0
ializes	-4875.0
indexed	-4876.0
librosa	-4877.0
marking	-4878.0
mistral	-4879.0
offline	-4880.0
onsible	-4881.0
ordered	-4882.0
preface	-4883.0
ramewor	-4884.0
recurse	-4885.0
reshape	-4886.0
tearing	-4887.0
torchao	-4888.0
trusted	-4889.0
ulative	-4890.0
unknown	-4891.0
whisper	-4892.0
▁Always	-4893.0
▁Apache	-4894.0
▁Deprec	-4895.0
▁Either	-4896.0
▁Future	-4897.0
▁Handle	-4898.0
▁IMPORT	-4899.0
▁Neuron	-4900.0
▁Number	-4901.0
▁Rotary	-4902.0
▁Values	-4903.0
▁attend	-4904.0
▁author	-4905.0
▁become	-4906.0
▁breaks	-4907.0
▁causes	-4908.0
▁decide	-4909.0
▁declar	-4910.0
▁decode	-4911.0
▁delete	-4912.0
▁domain	-4913.0
▁encode	-4914.0
▁ending	-4915.0
▁entire	-4916.0
▁having	-4917.0
▁itself	-4918.0
▁manual	-4919.0
▁matrix	-4920.0
▁moving	-4921.0
▁native	-4922.0
▁occurs	-4923.0
▁reader	-4924.0
▁really	-4925.0
▁recomm	-4926.0
▁recomp	-4927.0
▁record	-4928.0
▁reject	-4929.0
▁resize	-4930.0
▁shares	-4931.0
▁signal	-4932.0
▁simply	-4933.0
▁speech	-4934.0
▁subset	-4935.0
▁symbol	-4936.0
▁system	-4937.0
ByteType	-4938.0
Iterable	-4939.0
KENIZERS	-4940.0
MeshLike	-4941.0
Sequence	-4942.0
activate	-4943.0
adapters	-4944.0
alidates	-4945.0
callable	-4946.0
chronous	-4947.0
creation	-4948.0
decoding	-4949.0
endpoint	-4950.0
feasible	-4951.0
gressive	-4952.0
isabling	-4953.0
messages	-4954.0
nelement	-4955.0
onential	-4956.0
overload	-4957.0
platform	-4958.0
reloader	-4959.0
standard	-4960.0
tensorrt	-4961.0
▁Compute	-4962.0
▁Environ	-4963.0
▁Feature	-4964.0
▁Instead	-4965.0
▁MISSING	-4966.0
▁Usually	-4967.0
▁benefit	-4968.0
▁builder	-4969.0
▁casting	-4970.0
▁command	-4971.0
▁delattr	-4972.0
▁depends	-4973.0
▁failure	-4974.0
▁guarant	-4975.0
▁handles	-4976.0
▁healing	-4977.0
▁helpful	-4978.0
▁imports	-4979.0
▁individ	-4980.0
▁integer	-4981.0
▁mistral	-4982.0
▁opening	-4983.0
▁pattern	-4984.0
▁produce	-4985.0
▁reached	-4986.0
▁reverse	-4987.0
▁section	-4988.0
▁session	-4989.0
▁shorter	-4990.0
▁similar	-4991.0
▁skipped	-4992.0
▁softmax	-4993.0
▁stacked	-4994.0
▁storage	-4995.0
▁trained	-4996.0
▁trimmed	-4997.0
▁trusted	-4998.0
▁vectors	-4999.0
▁wrapped	-5000.0
AutoModel	-5001.0
CliRunner	-5002.0
STRUCTURE	-5003.0
TEMPLATES	-5004.0
capturing	-5005.0
construct	-5006.0
detectron	-5007.0
fullgraph	-5008.0
getbuffer	-5009.0
submodule	-5010.0
▁Backends	-5011.0
▁Licensed	-5012.0
▁Override	-5013.0
▁accepted	-5014.0
▁attempts	-5015.0
▁checking	-5016.0
▁choosing	-5017.0
▁commands	-5018.0
▁compared	-5019.0
▁consider	-5020.0
▁debugger	-5021.0
▁ensemble	-5022.0
▁examples	-5023.0
▁exported	-5024.0
▁external	-5025.0
▁filtered	-5026.0
▁hardware	-5027.0
▁intended	-5028.0
▁logprobs	-5029.0
▁mappings	-5030.0
▁normally	-5031.0
▁parametr	-5032.0
▁positive	-5033.0
▁priority	-5034.0
▁recovery	-5035.0
▁redirect	-5036.0
▁refactor	-5037.0
▁requests	-5038.0
▁reserved	-5039.0
▁restrict	-5040.0
▁silently	-5041.0
▁strategy	-5042.0
▁teardown	-5043.0
▁together	-5044.0
▁trailers	-5045.0
▁trailing	-5046.0
▁validate	-5047.0
▁wrappers	-5048.0
EXCEPTIONS	-5049.0
GENERATION	-5050.0
LazyModule	-5051.0
andardized	-5052.0
assignment	-5053.0
extensions	-5054.0
preprocess	-5055.0
standalone	-5056.0
torchcodec	-5057.0
ummyObject	-5058.0
▁Assertion	-5059.0
▁AutoModel	-5060.0
▁Different	-5061.0
▁ambiguous	-5062.0
▁arbitrary	-5063.0
▁broadcast	-5064.0
▁character	-5065.0
▁debugging	-5066.0
▁decorated	-5067.0
▁described	-5068.0
▁effective	-5069.0
▁indicates	-5070.0
▁kernelize	-5071.0
▁overrides	-5072.0
▁positions	-5073.0
▁recompute	-5074.0
▁referring	-5075.0
▁returning	-5076.0
▁sagemaker	-5077.0
▁signature	-5078.0
▁sometimes	-5079.0
▁truncated	-5080.0
▁utilities	-5081.0
AlignConfig	-5082.0
ArrayObject	-5083.0
ForCausalLM	-5084.0
Levenshtein	-5085.0
RepeatNGram	-5086.0
ReturnValue	-5087.0
atermarking	-5088.0
onnxruntime	-5089.0
pytesseract	-5090.0
stributions	-5091.0
temperature	-5092.0
▁ACCELERATE	-5093.0
▁Dictionary	-5094.0
▁ModuleType	-5095.0
▁WARRANTIES	-5096.0
▁allocation	-5097.0
▁compilable	-5098.0
▁configured	-5099.0
▁consisting	-5100.0
▁correspond	-5101.0
▁dimensions	-5102.0
▁discussion	-5103.0
▁dispatched	-5104.0
▁encryption	-5105.0
▁everything	-5106.0
▁identifier	-5107.0
▁offloading	-5108.0
▁overridden	-5109.0
▁particular	-5110.0
▁previously	-5111.0
▁sequential	-5112.0
▁tokenizers	-5113.0
▁torchaudio	-5114.0
▁transforms	-5115.0
▁xrefstream	-5116.0
DataParallel	-5117.0
FullySharded	-5118.0
StreamObject	-5119.0
bitsandbytes	-5120.0
serializable	-5121.0
▁Deprecation	-5122.0
▁UserWarning	-5123.0
▁conditioned	-5124.0
▁dispatching	-5125.0
▁improvement	-5126.0
▁limitations	-5127.0
▁overwritten	-5128.0
▁parallelism	-5129.0
▁responsible	-5130.0
▁technically	-5131.0
▁unsupported	-5132.0
compatibility	-5133.0
continuations	-5134.0
deterministic	-5135.0
smdistributed	-5136.0
▁DynamicCache	-5137.0
▁FeatureExtra	-5138.0
▁Instantiates	-5139.0
▁dictionaries	-5140.0
AlignProcessor	-5141.0
ImageProcessor	-5142.0
InvalidVersion	-5143.0
LlamaAttention	-5144.0
PushToHubMixin	-5145.0
contextmanager	-5146.0
▁BaseException	-5147.0
▁CompileConfig	-5148.0
▁FutureWarning	-5149.0
▁HTTPException	-5150.0
▁StartResponse	-5151.0
▁distributions	-5152.0
AlbertTokenizer	-5153.0
AlignTextConfig	-5154.0
▁AssertionError	-5155.0
▁FlashAttention	-5156.0
▁configurations	-5157.0
▁RequestRedirect	-5158.0
▁implementations	-5159.0
▁parametrization	-5160.0
AlignVisionConfig	-5161.0
▁parameterization	-5162.0
▁VersionComparison	-5163.0
ResponseReturnValue	-5164.0
PreTrainedConfigType	-5165.0
StoppingCriteriaList	-5166.0
▁FeatureExtractionMixin	-5167.0
FullyShardedDataParallel	-5168.0
RepeatNGramLogitsProcessor	-5169.0
GenerateEncoderDecoderOutput	-5170.0
GenerateBeamDecoderOnlyOutput	-5171.0
▁GenerateEncoderDecoderOutput	-5172.0
!"	-5173.0
![	-5174.0
"%	-5175.0
"'	-5176.0
"<	-5177.0
"^	-5178.0
"}	-5179.0
%(	-5180.0
(?	-5181.0
)/	-5182.0
);	-5183.0
*.	-5184.0
+,	-5185.0
+/	-5186.0
.<	-5187.0
/"	-5188.0
/.	-5189.0
/`	-5190.0
/~	-5191.0
:\	-5192.0
=(	-5193.0
>]	-5194.0
>`	-5195.0
AI	-5196.0
AO	-5197.0
BE	-5198.0
CN	-5199.0
CR	-5200.0
EK	-5201.0
FP	-5202.0
GB	-5203.0
Gu	-5204.0
Ho	-5205.0
IX	-5206.0
Kw	-5207.0
LU	-5208.0
MI	-5209.0
Me	-5210.0
NB	-5211.0
ND	-5212.0
Ne	-5213.0
OM	-5214.0
QL	-5215.0
SH	-5216.0
SS	-5217.0
Te	-5218.0
UT	-5219.0
VE	-5220.0
WA	-5221.0
]`	-5222.0
`(	-5223.0
aq	-5224.0
aw	-5225.0
bb	-5226.0
bg	-5227.0
cn	-5228.0
dl	-5229.0
eg	-5230.0
hn	-5231.0
kv	-5232.0
nt	-5233.0
oe	-5234.0
ov	-5235.0
ph	-5236.0
rf	-5237.0
sl	-5238.0
tc	-5239.0
xl	-5240.0
{_	-5241.0
}>	-5242.0
▁🤗	-5243.0
"`.	-5244.0
')}	-5245.0
'``	-5246.0
'}.	-5247.0
(""	-5248.0
("-	-5249.0
("\	-5250.0
("|	-5251.0
('_	-5252.0
()'	-5253.0
()]	-5254.0
(["	-5255.0
)",	-5256.0
)[-	-5257.0
)].	-5258.0
)}"	-5259.0
)},	-5260.0
+":	-5261.0
.".	-5262.0
.(?	-5263.0
.).	-5264.0
../	-5265.0
.<_	-5266.0
='{	-5267.0
ACT	-5268.0
ANS	-5269.0
API	-5270.0
ARK	-5271.0
Ass	-5272.0
BAD	-5273.0
BRO	-5274.0
BUF	-5275.0
BUG	-5276.0
Bad	-5277.0
CTR	-5278.0
DEC	-5279.0
DEV	-5280.0
DIO	-5281.0
DIR	-5282.0
DLP	-5283.0
Doc	-5284.0
EAD	-5285.0
ECE	-5286.0
ECH	-5287.0
ESP	-5288.0
GiB	-5289.0
HIT	-5290.0
HON	-5291.0
HQQ	-5292.0
ICH	-5293.0
IME	-5294.0
IND	-5295.0
ITH	-5296.0
KER	-5297.0
Key	-5298.0
LLM	-5299.0
LUD	-5300.0
Log	-5301.0
MAN	-5302.0
MLU	-5303.0
MOD	-5304.0
New	-5305.0
Non	-5306.0
OFT	-5307.0
OPY	-5308.0
OUR	-5309.0
OUT	-5310.0
Old	-5311.0
PAG	-5312.0
PRE	-5313.0
Pil	-5314.0
Pos	-5315.0
Rep	-5316.0
See	-5317.0
Seq	-5318.0
Set	-5319.0
Tra	-5320.0
URL	-5321.0
Use	-5322.0
VEN	-5323.0
Wor	-5324.0
YPT	-5325.0
])\	-5326.0
],)	-5327.0
][_	-5328.0
_*_	-5329.0
__:	-5330.0
`")	-5331.0
`/`	-5332.0
abs	-5333.0
ait	-5334.0
als	-5335.0
ana	-5336.0
aro	-5337.0
ars	-5338.0
awq	-5339.0
bas	-5340.0
bri	-5341.0
cer	-5342.0
cks	-5343.0
cpp	-5344.0
ctc	-5345.0
eds	-5346.0
edu	-5347.0
emm	-5348.0
eta	-5349.0
fer	-5350.0
fet	-5351.0
gam	-5352.0
het	-5353.0
hew	-5354.0
how	-5355.0
hqq	-5356.0
hyp	-5357.0
ime	-5358.0
ini	-5359.0
inq	-5360.0
irc	-5361.0
jac	-5362.0
jie	-5363.0
kay	-5364.0
mel	-5365.0
mis	-5366.0
ned	-5367.0
ols	-5368.0
pap	-5369.0
psd	-5370.0
ptq	-5371.0
pyg	-5372.0
rab	-5373.0
rac	-5374.0
ral	-5375.0
row	-5376.0
san	-5377.0
sel	-5378.0
ski	-5379.0
syn	-5380.0
tic	-5381.0
tit	-5382.0
too	-5383.0
tot	-5384.0
uck	-5385.0
ulk	-5386.0
ups	-5387.0
uss	-5388.0
uth	-5389.0
van	-5390.0
vis	-5391.0
was	-5392.0
way	-5393.0
wen	-5394.0
xim	-5395.0
xla	-5396.0
xxx	-5397.0
yes	-5398.0
}",	-5399.0
}"`	-5400.0
~/.	-5401.0
▁"#	-5402.0
▁",	-5403.0
▁":	-5404.0
▁"<	-5405.0
▁'%	-5406.0
▁',	-5407.0
▁'/	-5408.0
▁'_	-5409.0
▁'`	-5410.0
▁('	-5411.0
▁(*	-5412.0
▁(~	-5413.0
▁).	-5414.0
▁AD	-5415.0
▁AU	-5416.0
▁AV	-5417.0
▁Av	-5418.0
▁CB	-5419.0
▁CI	-5420.0
▁EX	-5421.0
▁GC	-5422.0
▁MI	-5423.0
▁OP	-5424.0
▁Or	-5425.0
▁PY	-5426.0
▁Qu	-5427.0
▁TK	-5428.0
▁Ty	-5429.0
▁YT	-5430.0
▁[-	-5431.0
▁[~	-5432.0
▁ab	-5433.0
▁bf	-5434.0
▁er	-5435.0
▁ht	-5436.0
▁kl	-5437.0
▁su	-5438.0
"",)	-5439.0
")):	-5440.0
")])	-5441.0
")`'	-5442.0
"]):	-5443.0
'}.`	-5444.0
("./	-5445.0
()),	-5446.0
()}"	-5447.0
()})	-5448.0
)})"	-5449.0
+/-)	-5450.0
,)):	-5451.0
>"`.	-5452.0
ACES	-5453.0
ASED	-5454.0
ASSI	-5455.0
Atte	-5456.0
BEAM	-5457.0
Both	-5458.0
CEPI	-5459.0
CESS	-5460.0
COMM	-5461.0
Code	-5462.0
DISA	-5463.0
DocC	-5464.0
ENCR	-5465.0
FSDP	-5466.0
Face	-5467.0
Free	-5468.0
GEMA	-5469.0
GPTQ	-5470.0
HOST	-5471.0
IGHT	-5472.0
INGS	-5473.0
INST	-5474.0
Init	-5475.0
Keep	-5476.0
Kids	-5477.0
LIPT	-5478.0
MIDI	-5479.0
MPLE	-5480.0
OPYR	-5481.0
OUND	-5482.0
Open	-5483.0
Over	-5484.0
POST	-5485.0
Part	-5486.0
REGI	-5487.0
Root	-5488.0
SCHE	-5489.0
SEEK	-5490.0
SEND	-5491.0
SETT	-5492.0
STRY	-5493.0
Size	-5494.0
TORS	-5495.0
TRUE	-5496.0
Util	-5497.0
WARE	-5498.0
Weak	-5499.0
YOUR	-5500.0
]]]:	-5501.0
__':	-5502.0
__`,	-5503.0
__`.	-5504.0
`(="	-5505.0
`]):	-5506.0
aces	-5507.0
adRe	-5508.0
ames	-5509.0
amma	-5510.0
apol	-5511.0
aqlm	-5512.0
arer	-5513.0
arli	-5514.0
arni	-5515.0
arry	-5516.0
auth	-5517.0
bers	-5518.0
bone	-5519.0
both	-5520.0
cers	-5521.0
chie	-5522.0
cies	-5523.0
corn	-5524.0
cute	-5525.0
dent	-5526.0
ders	-5527.0
emem	-5528.0
enot	-5529.0
ered	-5530.0
ever	-5531.0
exit	-5532.0
expr	-5533.0
fect	-5534.0
flag	-5535.0
flat	-5536.0
ford	-5537.0
four	-5538.0
hest	-5539.0
hose	-5540.0
iate	-5541.0
iful	-5542.0
imer	-5543.0
inom	-5544.0
john	-5545.0
kenv	-5546.0
late	-5547.0
lick	-5548.0
lies	-5549.0
logs	-5550.0
medi	-5551.0
msgs	-5552.0
oken	-5553.0
onem	-5554.0
otic	-5555.0
pied	-5556.0
rees	-5557.0
refs	-5558.0
rete	-5559.0
rupt	-5560.0
sans	-5561.0
sche	-5562.0
seen	-5563.0
sets	-5564.0
sinq	-5565.0
slow	-5566.0
stan	-5567.0
stim	-5568.0
tail	-5569.0
tegr	-5570.0
toml	-5571.0
unds	-5572.0
valu	-5573.0
verg	-5574.0
voke	-5575.0
what	-5576.0
when	-5577.0
}"].	-5578.0
}"`,	-5579.0
})."	-5580.0
▁"))	-5581.0
▁"./	-5582.0
▁').	-5583.0
▁(``	-5584.0
▁AND	-5585.0
▁BNB	-5586.0
▁Dis	-5587.0
▁Eta	-5588.0
▁Exp	-5589.0
▁INC	-5590.0
▁Ign	-5591.0
▁Inc	-5592.0
▁LIA	-5593.0
▁Met	-5594.0
▁OOM	-5595.0
▁PRO	-5596.0
▁Rep	-5597.0
▁SQL	-5598.0
▁Ser	-5599.0
▁Tip	-5600.0
▁Top	-5601.0
▁Uni	-5602.0
▁XPU	-5603.0
▁XXX	-5604.0
▁`""	-5605.0
▁`**	-5606.0
▁``.	-5607.0
▁arr	-5608.0
▁atm	-5609.0
▁clo	-5610.0
▁cnt	-5611.0
▁dig	-5612.0
▁eas	-5613.0
▁env	-5614.0
▁fav	-5615.0
▁git	-5616.0
▁giv	-5617.0
▁hab	-5618.0
▁had	-5619.0
▁hig	-5620.0
▁hit	-5621.0
▁how	-5622.0
▁hpu	-5623.0
▁hqq	-5624.0
▁imm	-5625.0
▁lay	-5626.0
▁mem	-5627.0
▁mlp	-5628.0
▁mut	-5629.0
▁ops	-5630.0
▁pid	-5631.0
▁pin	-5632.0
▁pla	-5633.0
▁rer	-5634.0
▁sep	-5635.0
▁sli	-5636.0
▁tre	-5637.0
▁	-5638.0
e	-5639.0
t	-5640.0
n	-5641.0
i	-5642.0
a	-5643.0
o	-5644.0
s	-5645.0
r	-5646.0
_	-5647.0
l	-5648.0
d	-5649.0
c	-5650.0
f	-5651.0
p	-5652.0
u	-5653.0
m	-5654.0
h	-5655.0
g	-5656.0
.	-5657.0
"	-5658.0
b	-5659.0
,	-5660.0
(	-5661.0
)	-5662.0
:	-5663.0
y	-5664.0
k	-5665.0
v	-5666.0
w	-5667.0
`	-5668.0
=	-5669.0
x	-5670.0
T	-5671.0
N	-5672.0
#	-5673.0
E	-5674.0
-	-5675.0
]	-5676.0
[	-5677.0
A	-5678.0
R	-5679.0
P	-5680.0
I	-5681.0
z	-5682.0
S	-5683.0
q	-5684.0
O	-5685.0
C	-5686.0
*	-5687.0
F	-5688.0
'	-5689.0
j	-5690.0
L	-5691.0
/	-5692.0
0	-5693.0
M	-5694.0
1	-5695.0
>	-5696.0
{	-5697.0
}	-5698.0
D	-5699.0
2	-5700.0
G	-5701.0
@	-5702.0
U	-5703.0
|	-5704.0
W	-5705.0
V	-5706.0
H	-5707.0
B	-5708.0
3	-5709.0
+	-5710.0
Y	-5711.0
K	-5712.0
4	-5713.0
6	-5714.0
X	-5715.0
!	-5716.0
<	-5717.0
5	-5718.0
~	-5719.0
8	-5720.0
Q	-5721.0
%	-5722.0
7	-5723.0
9	-5724.0
J	-5725.0
\	-5726.0
;	-5727.0
Z	-5728.0
?	-5729.0
&	-5730.0
$	-5731.0
^	-5732.0
—	-5733.0
👉	-5734.0
🤗	-5735.0
§	-5736.0
‐	-5737.0
→	-5738.0
≈	-5739.0
👈	-5740.0